[PAD]	0
[UNK]	0
[BOS]	0
[EOS]	0
[unused0]	0
[unused1]	0
[unused2]	0
[unused3]	0
[unused4]	0
[unused5]	0
[unused6]	0
[unused7]	0
[unused8]	0
[unused9]	0
[SEP]	0
[SEPT]	0
[MASK]	0
.	-3.30368
▁	-4.31047
/	-4.44583
,	-4.56789
이	-4.66929
을	-4.68704
의	-4.6947
는	-4.81799
에	-4.86274
:	-4.87737
▁+	-4.94847
도	-5.03854
가	-5.0689
은	-5.16814
?	-5.2465
를	-5.2952
고	-5.3406
)	-5.38215
▁$	-5.46183
SAY	-5.46231
▁그	-5.52919
지	-5.56691
▁이	-5.63388
▁수	-5.68485
한	-5.69097
로	-5.794
...	-5.80397
NNG	-5.83513
▁BT	-5.86083
과	-5.86822
▁BS	-5.96714
다	-5.972
>	-5.99764
으로	-6.00913
에서	-6.02388
하고	-6.05998
만	-6.14018
HO	-6.1505
기	-6.15702
-	-6.15856
(	-6.201
요	-6.21048
▁있는	-6.21831
서	-6.22616
하는	-6.23886
게	-6.26549
▁한	-6.27217
▁"	-6.27508
p	-6.28368
인	-6.28572
▁안	-6.29111
와	-6.30145
나	-6.30688
0	-6.34996
~	-6.36495
할	-6.38545
▁다	-6.39145
자	-6.43717
!	-6.43896
-0	-6.47434
해	-6.48218
5	-6.48545
어	-6.49528
▁있다	-6.53376
면	-6.53627
▁<	-6.54271
▁(	-6.55618
4	-6.57074
야	-6.57074
▁아	-6.59472
일	-6.61555
▁것	-6.63153
수	-6.68201
EO	-6.68623
▁내	-6.68751
▁더	-6.71223
시	-6.71589
▁잘	-6.71804
적	-6.73242
6	-6.74257
라	-6.75696
2	-6.75817
▁제가	-6.77017
▁너무	-6.77135
▁1	-6.77305
대	-6.7783
아	-6.78778
▁나	-6.78989
▁제	-6.79604
년	-6.7977
사	-6.7978
▁하	-6.80183
▁'	-6.80567
▁#	-6.8202
리	-6.82328
▁거	-6.82409
'	-6.82444
구	-6.84624
하게	-6.84814
▁때	-6.85151
▁가	-6.8535
▁네	-6.86021
주	-6.87526
▁할	-6.87607
:(	-6.87936
▁전	-6.88898
▁하는	-6.88924
3	-6.91026
▁하고	-6.91671
▁그리고	-6.91964
VV	-6.92152
7	-6.93073
▁일	-6.94558
▁좀	-6.95006
8	-6.95131
EC	-6.9549
▁그런	-6.98062
9	-6.9827
▁또	-6.98346
▁말	-6.99969
▁어	-7.00259
▁내가	-7.01572
진	-7.02066
는데	-7.03117
거	-7.06039
▁이런	-7.06207
▁것이다	-7.06223
장	-7.06278
1	-7.07669
."	-7.08328
▁지금	-7.09579
▁저	-7.1009
▁사	-7.10184
며	-7.10538
▁예	-7.10789
성	-7.11432
▁많이	-7.13077
▁2	-7.14004
들	-7.1488
▁다른	-7.16617
니	-7.16671
들이	-7.16958
▁오	-7.17198
라고	-7.1746
▁것이	-7.18191
▁두	-7.1847
▁뭐	-7.1874
적인	-7.18878
부	-7.1891
정	-7.19476
상	-7.19539
▁고	-7.19607
에게	-7.20285
까지	-7.21225
이다	-7.22103
네	-7.22509
▁못	-7.22561
ETM	-7.22591
▁그래서	-7.2299
▁왜	-7.23526
0001	-7.23809
신	-7.24249
▁해	-7.24821
▁게	-7.24869
▁자	-7.25435
▁어떻게	-7.25549
스	-7.26817
▁3	-7.26986
▁우리	-7.27087
▁같은	-7.27214
▁</	-7.27386
하	-7.27391
했다	-7.27539
오	-7.28473
▁지	-7.29738
여	-7.29877
▁이렇게	-7.29917
▁저는	-7.3154
▁나는	-7.31618
소	-7.31883
치	-7.32264
▁대한	-7.32597
전	-7.32983
▁이제	-7.33111
▁다시	-7.33651
세	-7.34085
화	-7.34513
▁때문에	-7.34647
▁정말	-7.36571
이나	-7.36664
▁그냥	-7.36681
선	-7.37058
하지	-7.37214
해서	-7.37244
0002	-7.37318
▁주	-7.37383
_	-7.37433
던	-7.37628
원	-7.37656
된	-7.3822
s	-7.38381
▁어떤	-7.38388
동	-7.38899
▁정	-7.39926
▁것은	-7.40059
▁한다	-7.40135
▁중	-7.40586
입니다	-7.42285
▁대	-7.42435
월	-7.42959
두	-7.43042
▁5	-7.45344
미	-7.45714
비	-7.45991
3-0	-7.46318
▁없는	-7.47776
라는	-7.47898
▁근데	-7.48059
▁시	-7.4865
▁기	-7.48885
보	-7.49231
마	-7.49845
우	-7.50567
#	-7.5076
001	-7.50929
적으로	-7.51263
JKB	-7.51272
▁있었다	-7.51369
조	-7.51734
▁그렇게	-7.52093
▁S	-7.527
▁보	-7.53468
한다	-7.53958
하여	-7.55697
면서	-7.55857
▁아니	-7.57136
▁비	-7.57183
습니다	-7.57625
제	-7.57917
JX	-7.57947
▁있습니다	-7.5835
경	-7.58832
데	-7.58952
▁4	-7.59754
당	-7.59958
실	-7.61054
영	-7.61282
▁후	-7.61303
1-	-7.61598
SF	-7.61785
질	-7.61949
▁유	-7.62156
▁난	-7.62185
▁것을	-7.6259
처럼	-7.62954
안	-7.63103
▁사람이	-7.63867
려	-7.64
지만	-7.6516
하면	-7.65376
랑	-7.65477
0003	-7.65863
▁그러나	-7.66072
▁6	-7.66483
▁부	-7.66865
▁원	-7.6755
AA	-7.67805
▁건	-7.6812
분	-7.6826
▁되	-7.68759
▁세	-7.68957
EF	-7.69174
▁계속	-7.69269
CT	-7.69334
히	-7.69602
▁하지만	-7.69613
유	-7.6972
드	-7.6985
용	-7.70155
__01/	-7.70181
건	-7.70517
▁생각	-7.70708
호	-7.70873
하기	-7.7108
▁진짜	-7.71417
JKO	-7.71817
▁상	-7.71942
▁그런데	-7.72026
란	-7.72284
재	-7.72314
중	-7.73117
▁같이	-7.73263
해야	-7.73363
무	-7.73457
차	-7.73459
▁정도	-7.7362
연	-7.73668
산	-7.73974
▁./	-7.74191
▁장	-7.74689
▁해야	-7.75055
▁신	-7.75133
명	-7.75289
들은	-7.75497
▁아니라	-7.75522
"	-7.75911
▁등	-7.75951
식	-7.76044
▁무	-7.76182
네요	-7.7622
죠	-7.76609
▁날	-7.76736
인데	-7.77087
▁들	-7.77891
▁좋은	-7.781
▁동	-7.78318
그	-7.7835
문	-7.78483
▁모든	-7.78698
▁서	-7.78756
▁사람	-7.78802
모	-7.78805
단	-7.79228
GO	-7.79844
▁구	-7.80619
▁음	-7.81169
▁미	-7.81255
▁소	-7.81581
▁될	-7.82133
NNB	-7.82457
▁김	-7.82648
▁성	-7.8277
부터	-7.83824
▁개	-7.84004
?"	-7.841
개	-7.84334
▁큰	-7.84431
들을	-7.84535
▁몇	-7.85207
에는	-7.85278
내	-7.85482
▁의	-7.85517
▁줄	-7.85679
▁자기	-7.85683
▁살	-7.8612
간	-7.86147
▁8	-7.86174
▁되는	-7.86306
방	-7.87528
보다	-7.8755
▁많은	-7.87637
물	-7.87705
▁조	-7.87999
▁알	-7.89072
음	-7.89397
▁오늘	-7.89743
민	-7.89909
다고	-7.90117
MAG	-7.90707
▁있을	-7.90889
ᆞ	-7.90914
▁도	-7.90979
살	-7.91052
2-	-7.91136
▁바로	-7.91552
▁걸	-7.91556
▁보고	-7.91576
▁반	-7.92316
러	-7.92345
이라고	-7.92588
▁해서	-7.92999
▁합니다	-7.9305
트	-7.9322
었다	-7.93836
▁7	-7.93882
금	-7.94065
▁가장	-7.94085
▁있	-7.94267
▁공	-7.94685
▁일이	-7.95168
▁참	-7.95844
▁함께	-7.95933
▁차	-7.95959
▁않고	-7.96078
다가	-7.96147
▁위해	-7.96452
▁에	-7.96861
▁가지	-7.96894
▁적	-7.97318
▁없다	-7.97446
되는	-7.97744
▁마	-7.97781
▁집	-7.97934
국	-7.98007
0004	-7.98174
래	-7.98179
▁있고	-7.98295
이라는	-7.98396
형	-7.98561
공	-7.98633
니까	-7.9894
▁말을	-7.9917
관	-7.9944
▁했다	-7.99658
태	-7.99753
▁하면	-8.00392
거나	-8.0049
파	-8.01036
감	-8.01141
▁하나	-8.0149
SS	-8.01535
▁분	-8.01607
▁무슨	-8.01672
▁번	-8.01955
▁선	-8.01977
JKS	-8.02107
▁10	-8.02206
▁재	-8.02466
천	-8.02759
▁모	-8.03022
심	-8.03029
▁사실	-8.03802
002	-8.03996
▁그는	-8.04033
▁이상	-8.041
▁볼	-8.04271
르	-8.04408
으면	-8.04972
▁알고	-8.05075
▁것도	-8.05241
▁피	-8.05357
구요	-8.05364
계	-8.05414
위	-8.05973
▁ᆫ	-8.06095
어요	-8.06433
▁있는데	-8.06798
회	-8.06947
▁불	-8.07131
▁경	-8.07167
였다	-8.07415
▁여	-8.07695
종	-8.07835
▁막	-8.07867
▁남	-8.08007
XSV	-8.08012
말	-8.08513
NP	-8.08579
▁약	-8.08716
석	-8.0888
운	-8.09005
EP	-8.0939
▁명	-8.09837
▁들어	-8.09915
하다	-8.10077
린	-8.1047
냐	-8.10519
합니다	-8.10795
▁모두	-8.10849
▁물	-8.11331
한테	-8.11704
이었다	-8.11812
▁강	-8.12215
▁된	-8.12335
박	-8.12471
타	-8.12751
▁데	-8.12758
▁어느	-8.1276
▁배	-8.12791
▁양	-8.13379
▁는	-8.13544
▁경우	-8.1363
▁따라	-8.13632
▁하지	-8.14106
▁연	-8.14128
▁보면	-8.14995
남	-8.15246
▁된다	-8.15393
희	-8.15453
군	-8.15999
▁저도	-8.16016
▁산	-8.16418
달	-8.16427
▁인	-8.16512
▁노	-8.16544
임	-8.16651
▁입	-8.16911
양	-8.17035
디	-8.17086
▁문제	-8.1724
JKG	-8.17459
▁은	-8.17728
후	-8.18612
지는	-8.18692
▁너	-8.18773
▁-	-8.19061
크	-8.19154
▁같아요	-8.19464
되어	-8.19491
까	-8.19832
▁한번	-8.20294
VX	-8.20324
하며	-8.20484
▁없이	-8.20607
집	-8.20685
길	-8.20705
루	-8.20766
▁발	-8.20831
강	-8.21004
에서는	-8.21592
발	-8.21778
▁위	-8.2181
▁없	-8.21854
▁문	-8.22097
긴	-8.22262
교	-8.22814
이라	-8.22856
▁방	-8.23312
▁자신의	-8.23323
반	-8.23424
NNP	-8.23753
▁혼자	-8.23833
▁일을	-8.2406
▁대해	-8.24362
현	-8.24385
▁가지고	-8.24782
▁하는데	-8.2501
▁만	-8.25013
▁심	-8.25115
’	-8.25636
▁?	-8.25705
걸	-8.25868
▁얘기	-8.25908
▁이혼	-8.25923
씨	-8.25954
생	-8.26064
기도	-8.26084
지도	-8.26299
저	-8.27042
▁단	-8.27097
증	-8.27265
▁우	-8.27322
바	-8.27397
예	-8.28125
▁열	-8.28174
="	-8.28302
▁당	-8.284
SP	-8.28568
난	-8.28915
▁현재	-8.29038
▁수도	-8.29051
010	-8.29076
약	-8.29115
학	-8.2913
▁여러	-8.29338
체	-8.29481
▁생각이	-8.29499
하면서	-8.29572
000	-8.29586
▁있어	-8.29611
려고	-8.2968
▁파	-8.29912
▁속	-8.30359
▁눈	-8.30518
007	-8.30571
▁초	-8.30718
VCP	-8.30847
▁꼭	-8.30862
법	-8.30946
병	-8.31085
엔	-8.31158
▁아직	-8.3134
▁박	-8.3166
__02/	-8.31668
▁않	-8.3167
▁있어요	-8.31831
것	-8.32313
004	-8.32771
▁‘	-8.32812
▁본	-8.33169
레	-8.33527
▁조금	-8.33692
들의	-8.33729
노	-8.34206
▁을	-8.34229
기를	-8.34235
▁뒤	-8.34465
008	-8.34638
▁이야기	-8.34772
▁먼저	-8.34844
▁이러한	-8.34869
▁그럼	-8.34909
권	-8.35155
점	-8.35613
▁외	-8.35683
▁바	-8.35832
▁애	-8.35844
▁돈	-8.35888
▁않는	-8.36063
번	-8.36067
▁ᅲᅲ	-8.36168
이고	-8.36263
복	-8.36475
▁그게	-8.36669
▁진	-8.36748
▁이미	-8.36767
▁동안	-8.36834
될	-8.36843
준	-8.36862
줄	-8.37189
▁화	-8.37189
XSN	-8.37226
▁달	-8.37462
때	-8.37587
▁손	-8.37616
라도	-8.37737
▁그때	-8.37795
직	-8.37889
▁9	-8.3802
▁사람들이	-8.38385
▁시간	-8.38496
▁간	-8.38547
거든요	-8.38599
피	-8.38672
▁그의	-8.3871
VA	-8.3901
▁이게	-8.39275
▁전에	-8.39323
져	-8.39404
▁않은	-8.39435
▁갈	-8.39464
▁또한	-8.39514
▁친구	-8.39659
▁소리	-8.39663
통	-8.39871
+	-8.39955
터	-8.40082
▁「	-8.4022
▁가서	-8.40258
012	-8.40478
▁실	-8.40483
▁한국	-8.40487
▁삼	-8.40512
.</	-8.40685
절	-8.40808
포	-8.40884
▁와	-8.41364
행	-8.41372
듯	-8.41531
▁타	-8.41742
▁영	-8.41821
날	-8.4187
▁저희	-8.41909
▁물론	-8.41926
u	-8.42025
▁및	-8.42164
▁수술	-8.42246
▁것으로	-8.42276
되고	-8.42546
속	-8.42626
▁되어	-8.42702
▁얼마나	-8.42863
▁그래	-8.4402
▁사랑	-8.44047
프	-8.44106
인지	-8.44159
▁온	-8.443
▁그래도	-8.44447
▁여자	-8.44537
급	-8.44644
▁아주	-8.44753
했던	-8.45274
백	-8.45285
▁있어서	-8.45373
배	-8.45862
▁말이	-8.45915
▁호	-8.46267
청	-8.46577
009	-8.4689
▁변	-8.47113
▁서로	-8.47159
!!	-8.47305
042	-8.47397
▁엄마	-8.47486
울	-8.47533
▁편	-8.47587
▁거의	-8.47796
▁없고	-8.4792
▁사람은	-8.48192
▁결혼	-8.48497
워	-8.48741
▁다음	-8.48786
AE	-8.48961
▁나를	-8.49068
든	-8.49438
등	-8.49524
▁나도	-8.49644
다는	-8.49817
숙	-8.49877
▁해도	-8.49976
▁있다는	-8.49986
▁『	-8.50085
론	-8.50099
▁항상	-8.50201
▁천	-8.50271
003	-8.50413
▁않았다	-8.5054
해요	-8.50617
락	-8.50802
▁우리가	-8.50816
▁새	-8.50917
설	-8.51066
▁갑자기	-8.51256
005	-8.51258
▁시작	-8.51332
함	-8.5145
▁결국	-8.51521
▁채	-8.51584
▁아닌	-8.5166
▁있다고	-8.51777
매	-8.52014
▁상담	-8.52183
애	-8.52212
하였다	-8.52472
본	-8.53053
근	-8.53422
▁야	-8.53965
창	-8.54063
▁집에	-8.5414
▁사회	-8.54153
불	-8.54172
▁백	-8.54285
입	-8.54311
역	-8.54541
▁포	-8.54616
▁20	-8.54905
▁없었다	-8.55194
▁위한	-8.55256
목	-8.55412
▁새로운	-8.5562
으며	-8.55712
님	-8.55911
▁통해	-8.55954
각	-8.56086
순	-8.56162
006	-8.56217
▁어디	-8.56348
▁듯	-8.56686
작	-8.57411
김	-8.57437
세요	-8.57484
류	-8.57598
▁요즘	-8.57601
▁스	-8.57706
담	-8.57772
철	-8.57864
력	-8.58161
초	-8.5817
▁술	-8.58311
▁받고	-8.58362
▁요	-8.58605
더니	-8.58673
▁매	-8.58708
▁즉	-8.5888
▁했는데	-8.59039
더	-8.5917
판	-8.59308
▁때문이다	-8.59565
▁“	-8.59706
▁허	-8.60102
시간	-8.60278
티	-8.60313
되	-8.60731
▁되고	-8.60735
MM	-8.60975
편	-8.61058
▁이거	-8.61319
▁남자	-8.61713
하는데	-8.61806
갈	-8.6189
▁최	-8.62138
▁공부	-8.6214
▁특히	-8.62494
림	-8.62531
▁아무	-8.62564
▁글	-8.6293
승	-8.62996
▁아니면	-8.62999
기가	-8.63122
▁없어	-8.63253
토	-8.63278
▁앞	-8.63324
만원	-8.63573
▁치	-8.6397
▁코	-8.64328
이란	-8.64444
0005	-8.64808
온	-8.6511
▁아이	-8.65204
▁우리는	-8.6526
▁쓰	-8.65275
▁시간이	-8.65317
색	-8.65393
▁총	-8.65433
▁중요한	-8.65577
011	-8.65649
자가	-8.65706
된다	-8.65728
▁안녕하세요	-8.65758
034	-8.6586
에도	-8.66043
▁사용	-8.66077
043	-8.66463
카	-8.66633
▁먹	-8.66695
▁팔	-8.66699
▁절	-8.66766
e	-8.66769
▁역시	-8.66956
▁걱정	-8.66972
코	-8.6714
▁여기	-8.67166
▁마음이	-8.67306
대로	-8.67455
릴	-8.67804
너	-8.67866
▁나가	-8.67877
▁생각을	-8.68235
▁별	-8.6825
채	-8.68555
▁했습니다	-8.6862
▁과	-8.68909
출	-8.68926
▁응	-8.69022
▁받아	-8.6904
016	-8.69049
없이	-8.69185
개월	-8.69232
▁자신이	-8.69701
▁통	-8.69888
주의	-8.69898
▁전화	-8.69922
▁되면	-8.69993
▁점	-8.70101
▁수가	-8.70131
나요	-8.7024
▁감	-8.70303
▁일본	-8.70348
▁마음	-8.70422
▁보는	-8.70508
▁되었다	-8.70658
▁일단	-8.70693
구나	-8.7088
▁돌	-8.70889
▁운동	-8.70918
환	-8.70978
▁친	-8.71005
』	-8.71008
▁따라서	-8.71074
▁나서	-8.71113
▁학교	-8.71224
키	-8.71236
l	-8.71382
성을	-8.71422
▁거야	-8.71442
」	-8.71502
▁책	-8.71689
격	-8.72427
▁씨	-8.72536
▁병	-8.72982
▁앞으로	-8.72984
▁고민	-8.733
▁법	-8.73339
S	-8.73414
▁말했다	-8.73467
도록	-8.7356
▁현	-8.73641
▁교	-8.73777
▁병원	-8.73882
▁name	-8.74001
▁받을	-8.74013
▁길	-8.74074
더라구요	-8.74182
▁처음	-8.74311
▁민	-8.74318
▁같	-8.74362
▁청	-8.7449
▁그럴	-8.74656
▁순	-8.74788
▁왕	-8.74907
왕	-8.74985
▁답변	-8.7503
▁태	-8.75275
▁울	-8.75529
▁또는	-8.75554
▁미국	-8.75686
▁않을	-8.76171
▁먹고	-8.76192
름	-8.76203
▁금	-8.76212
▁각	-8.7639
이야	-8.76523
▁추	-8.76546
</	-8.76581
▁질문	-8.76585
SN	-8.76706
037	-8.76824
▁싶은	-8.76905
▁작은	-8.77027
열	-8.7712
▁원래	-8.77176
▁12	-8.77274
있는	-8.77303
▁가족	-8.77334
▁가는	-8.77526
봉	-8.77552
▁얼마	-8.77678
▁n	-8.77849
녀	-8.77926
▁빨리	-8.77936
결	-8.77997
▁연구	-8.78005
지요	-8.7803
평	-8.78331
▁A	-8.78505
▁못하고	-8.78671
이에요	-8.78675
020	-8.78686
▁맞	-8.78709
▁생활	-8.78789
▁곧	-8.78815
▁형	-8.78931
013	-8.79207
▁세계	-8.79225
▁돈을	-8.79385
▁때는	-8.79429
즈	-8.79439
처	-8.79472
▁전혀	-8.79482
BZ	-8.79504
추	-8.79513
▁만들어	-8.79827
업	-8.79877
께	-8.80138
:...	-8.80145
합	-8.80149
막	-8.80287
했습니다	-8.80297
규	-8.80575
▁정치	-8.80728
▁그거	-8.80754
▁국가	-8.80858
▁들고	-8.80993
령	-8.81154
▁30	-8.8126
▁받	-8.81271
▁순간	-8.81315
▁사람들	-8.81374
▁문제가	-8.81458
▁얼굴	-8.81598
▁있던	-8.8174
표	-8.82049
033	-8.82266
량	-8.82578
▁몸	-8.82603
▁좋아	-8.82631
▁국	-8.82853
▁인제	-8.82944
▁교육	-8.82966
▁그러면	-8.83011
▁노력	-8.83193
잖아요	-8.83232
▁벌	-8.83368
▁아니다	-8.83449
▁하루	-8.8346
되었다	-8.8361
▁회사	-8.83662
▁하면서	-8.83743
▁아니고	-8.83923
억	-8.83973
료	-8.84009
이랑	-8.84191
거야	-8.84435
버	-8.84461
▁지난	-8.84607
▁크게	-8.84636
어서	-8.84666
▁었	-8.84826
▁머리	-8.85057
▁지금은	-8.85299
▁용	-8.85381
▁경제	-8.85519
▁늘	-8.85831
겨	-8.85857
▁종	-8.85876
▁더욱	-8.85891
AB	-8.85979
),	-8.86086
했는데	-8.86092
!"	-8.86117
▁관	-8.86178
▁보내	-8.86292
▁자주	-8.86841
이라도	-8.86942
외	-8.87003
칠	-8.87015
a	-8.87079
▁년	-8.87144
▁자꾸	-8.87164
▁토	-8.87176
보고	-8.87206
▁그러니까	-8.87262
변	-8.874
031	-8.87409
▁면	-8.87466
▁오히려	-8.87521
▁거예요	-8.87573
▁기억	-8.87719
▁들어가	-8.87865
......	-8.87908
017	-8.87984
▁사람을	-8.88278
글	-8.88347
▁그러	-8.88377
▁열심히	-8.88408
망	-8.88539
▁ᄏᄏᄏ	-8.88705
▁대해서	-8.88744
인가	-8.88755
▁진행	-8.8876
▁아빠	-8.88967
았다	-8.89032
▁많	-8.89189
▁그대로	-8.89209
▁존재	-8.89236
▁준비	-8.89246
ᅲᅲ	-8.89419
아니	-8.89445
▁질	-8.89448
▁인간	-8.89472
▁영화	-8.89933
악	-8.89966
▁사람들은	-8.90035
범	-8.90071
▁잘못	-8.90184
▁귀	-8.90357
t	-8.90389
▁그것은	-8.90781
옥	-8.90803
▁아버지	-8.90858
E	-8.90877
지를	-8.91058
친	-8.9107
잖아	-8.9123
▁직접	-8.91293
▁정도로	-8.91361
있	-8.91452
이며	-8.91535
▁누가	-8.91585
▁오래	-8.91661
▁로	-8.91691
▁방법	-8.91694
▁있지	-8.91802
광	-8.91932
으	-8.92122
▁뭔가	-8.9216
ᅲ	-8.92164
▁제대로	-8.92225
었습니다	-8.92242
▁뭘	-8.92243
▁있으면	-8.92259
▁말씀	-8.92294
▁위해서	-8.92437
▁중국	-8.92457
▁관계	-8.92527
▁의사	-8.92962
▁스스로	-8.93092
▁생	-8.93259
▁살고	-8.93304
▁같습니다	-8.93416
▁결정	-8.93544
▁않는다	-8.93592
▁당시	-8.93664
▁사는	-8.93731
층	-8.93917
기에	-8.93919
▁표현	-8.93961
▁치료	-8.94017
지고	-8.94256
▁니	-8.94323
▁나오	-8.94345
기는	-8.94414
술	-8.94664
▁같다	-8.94674
▁11	-8.94876
립	-8.94931
▁군	-8.94958
▁엄마가	-8.95025
P	-8.95285
▁올	-8.95348
쳐	-8.9546
▁내용	-8.95585
삼	-8.95666
▁속에서	-8.95805
▁M	-8.9605
소리	-8.9609
▁대학	-8.96137
▁리	-8.96284
정도	-8.96319
▁잠	-8.96364
▁있기	-8.96612
졌다	-8.96761
▁힘든	-8.96853
▁감사합니다	-8.96907
y	-8.96921
▁선택	-8.9698
같은	-8.97127
브	-8.97142
▁이후	-8.97398
▁없습니다	-8.97505
▁기대	-8.97509
▁목	-8.97691
밖에	-8.97713
▁사진	-8.97917
▁만나	-8.97929
겠다	-8.97943
;	-8.97957
자는	-8.98123
▁행동	-8.9827
▁넘	-8.98496
▁혹시	-8.98569
▁C	-8.99034
▁기분	-8.99078
꺼	-8.99136
▁누구	-8.99154
▁돼	-8.99261
독	-8.9937
▁처	-8.99418
▁이해	-8.995
▁ᄏᄏ	-8.99518
▁관련	-8.99542
쯤	-8.99641
041	-8.99657
XSA	-8.99701
▁확인	-8.99768
축	-8.99776
▁말고	-8.99926
▁보니	-9.00239
▁문화	-9.0029
▁것입니다	-9.00412
▁겁니다	-9.00464
▁았	-9.00536
▁설명	-9.00554
덕	-9.00569
▁나와	-9.00583
▁갖고	-9.00608
▁B	-9.00907
▁둘	-9.01065
▁와서	-9.01165
▁같은데	-9.01283
▁나중에	-9.01285
▁힘들	-9.01343
n	-9.01349
▁여기서	-9.01357
들과	-9.014
▁첫	-9.0156
들에게	-9.01654
되지	-9.01715
쪽	-9.01871
으니	-9.01936
▁찾아	-9.02035
는지	-9.02169
▁없어요	-9.02234
성이	-9.0226
▁자연	-9.02265
▁정보	-9.02388
▁속에	-9.02426
▁카	-9.02449
리는	-9.02532
o	-9.02535
▁망	-9.02578
▁좋	-9.02601
▁마음을	-9.02691
▁서울	-9.02766
??	-9.02843
T	-9.02844
▁저를	-9.02875
▁힘	-9.02899
▁..	-9.02901
해도	-9.02925
손	-9.03025
▁어제	-9.03134
▁알아	-9.03145
▁매우	-9.03302
▁이야기를	-9.03306
▁건가요	-9.03406
품	-9.03917
▁결과	-9.03977
▁누	-9.04006
▁따	-9.0409
▁여성	-9.04109
▁되지	-9.0443
윤	-9.04801
▁의미	-9.04843
▁없을	-9.04876
▁그만	-9.0488
▁친구가	-9.04989
그래	-9.04996
▁우선	-9.05021
▁앞에	-9.05126
별	-9.05343
했고	-9.05349
▁내일	-9.05369
▁듣고	-9.05406
▁복	-9.0541
▁지역	-9.0543
027	-9.05477
▁를	-9.05497
]	-9.05509
▁됩니다	-9.05682
i	-9.05861
▁밤	-9.06002
▁그가	-9.06028
곤	-9.06062
혜	-9.06181
▁연락	-9.06347
▁약간	-9.06405
먹	-9.06575
▁딱	-9.06604
023	-9.06731
송	-9.06808
▁살아	-9.06961
▁싶어	-9.07015
▁창	-9.07081
▁있지만	-9.07134
▁필요	-9.07346
▁그걸	-9.07367
▁이번	-9.07561
▁노래	-9.07562
▁준	-9.07565
하지만	-9.07674
었는데	-9.07809
▁행	-9.07843
D	-9.08053
▁엄청	-9.08081
필	-9.08096
▁그건	-9.08134
▁하기	-9.08192
▁역	-9.08195
거리	-9.08222
라면	-9.08362
▁그것	-9.08445
알	-9.08468
▁식	-9.08536
▁개인	-9.08537
언	-9.08583
▁있나요	-9.08607
밤	-9.08632
니다	-9.08811
▁점점	-9.08846
▁선생님	-9.08934
▁권	-9.09151
▁자신을	-9.09303
035	-9.0934
▁굉장히	-9.09382
▁스트레스	-9.09405
▁절대	-9.09459
찬	-9.09555
▁딸	-9.09647
향	-9.10048
▁철	-9.10058
▁제일	-9.1019
▁떠나	-9.10233
학년	-9.10311
습	-9.10419
응	-9.10435
▁인정	-9.10494
▁만약	-9.10512
▁결	-9.10516
▁것처럼	-9.10574
▁발견	-9.10671
올	-9.10707
ᄏᄏ	-9.1072
새	-9.10785
율	-9.10799
▁정신	-9.10847
I	-9.1109
▁ᅲ	-9.11101
주는	-9.11267
▁건강	-9.11273
▁관리	-9.11334
귀	-9.11364
하던	-9.11492
▁지방	-9.11553
기로	-9.11557
▁관한	-9.11705
씩	-9.11756
자의	-9.11784
▁죽	-9.11954
고요	-9.12025
▁ᆯ	-9.1208
▁못한	-9.12306
▁매일	-9.1239
▁얘기를	-9.12418
▁어머니	-9.12466
▁...	-9.12551
염	-9.12604
▁임	-9.12625
▁하게	-9.1265
▁끝	-9.12677
▁잔	-9.12678
▁대표	-9.12712
▁지금까지	-9.12739
▁황	-9.12757
▁하며	-9.12848
▁시장	-9.12869
▁악	-9.12879
▁가정	-9.12885
▁감정	-9.13019
▁해요	-9.13118
▁십	-9.13127
039	-9.13153
테	-9.13191
혀	-9.13219
:<	-9.13232
탄	-9.13324
▁등을	-9.13406
▁잠시	-9.13443
▁상태	-9.13475
▁언제	-9.1349
케	-9.135
▁나의	-9.13533
▁그렇죠	-9.1377
▁밥	-9.13809
▁언니	-9.13879
▁조직	-9.13895
투	-9.13908
▁위로	-9.1391
▁필요한	-9.1409
▁눈을	-9.14124
항	-9.14259
▁손을	-9.14473
▁써	-9.14514
▁있는지	-9.14626
▁곳	-9.14711
▁대신	-9.14751
▁아침	-9.1479
▁발전	-9.14816
겠어요	-9.1487
죽	-9.14895
▁주는	-9.14909
▁신경	-9.15009
다면	-9.15012
C	-9.15272
었	-9.15336
▁적이	-9.15365
▁받은	-9.15397
er	-9.15517
▁기업	-9.15551
▁송	-9.15604
▁직장	-9.15641
▁담	-9.15696
▁ᄏᄏᄏᄏ	-9.15767
겠지만	-9.15822
▁옷	-9.15911
까요	-9.15928
A	-9.15938
▁환	-9.16045
▁풀	-9.16153
▁없어서	-9.16155
▁맞는	-9.16173
▁아무리	-9.16217
었어요	-9.16482
▁체	-9.16562
▁쉽게	-9.16733
▁환경	-9.16864
▁하여	-9.16906
▁이를	-9.17008
▁함	-9.1711
▁요구	-9.17157
허	-9.1717
스트	-9.17186
▁기술	-9.17481
▁암	-9.17608
d	-9.17691
▁앉아	-9.17733
▁성공	-9.17734
▁위에	-9.17915
황	-9.18029
▁아마	-9.1807
▁거죠	-9.18171
▁않아	-9.18204
▁조선	-9.18206
▁변화	-9.18371
더라고요	-9.18479
참	-9.18551
취	-9.18617
▁왔	-9.1872
에서도	-9.18723
사람	-9.18737
0000	-9.18992
__03/	-9.19062
▁그녀는	-9.19126
▁아는	-9.19126
익	-9.19135
만큼	-9.19172
▁본다	-9.19183
al	-9.19186
▁출	-9.19213
▁상황이	-9.19221
▁번째	-9.19327
겠습니다	-9.19338
036	-9.19345
겠죠	-9.19358
▁해결	-9.19435
▁보통	-9.19476
▁독	-9.19483
▁밖에	-9.19586
섭	-9.19631
벌	-9.19717
▁그리	-9.19879
▁별로	-9.19894
▁아무것도	-9.19949
▁신청	-9.20078
진다	-9.20133
▁윤	-9.20218
▁보험	-9.20248
침	-9.20469
왜	-9.20472
▁현실	-9.20479
가요	-9.20481
볼	-9.20704
▁집에서	-9.20704
▁사실을	-9.20714
▁판단	-9.20803
▁의해	-9.20828
▁좋아하는	-9.20854
▁마지막	-9.20878
▁없다고	-9.21212
▁급	-9.21221
하거나	-9.21293
메	-9.21357
곡	-9.21448
none	-9.21491
냐고	-9.21578
자를	-9.21724
▁모습을	-9.2181
로부터	-9.21829
▁라고	-9.21915
▁평	-9.21936
▁나라	-9.21938
▁그들은	-9.22085
▁메	-9.22196
▁같아	-9.22265
한다고	-9.22306
돈	-9.22319
▁잡	-9.22381
▁경험	-9.22387
▁나오는	-9.22429
▁꿈	-9.22611
▁모습	-9.22667
▁싫어	-9.2272
▁나이	-9.22729
골	-9.22792
▁크	-9.2285
적이	-9.22851
▁15	-9.22858
▁일어나	-9.22905
어야	-9.23007
▁있었던	-9.23126
▁있을까요	-9.23331
c	-9.2337
인가요	-9.23372
▁방송	-9.23549
▁가진	-9.23629
BD	-9.23676
M	-9.23704
029	-9.2371
▁못하는	-9.23784
▁그것을	-9.23926
로서	-9.23929
▁싶습니다	-9.24053
▁깨	-9.24166
▁사고	-9.24195
▁모르는	-9.24319
▁혹은	-9.24357
▁꽃	-9.24366
▁뿐	-9.24372
▁상황	-9.24438
▁앞에서	-9.24448
▁보다	-9.24537
팔	-9.24557
m	-9.24565
▁사이	-9.24671
들도	-9.24726
▁저녁	-9.2476
▁역사	-9.24766
▁투자	-9.24846
▁활동	-9.25005
사를	-9.2501
한다는	-9.25016
▁사람의	-9.25179
▁일반	-9.25186
▁뜻	-9.25197
▁있게	-9.25225
주고	-9.25228
수가	-9.25237
록	-9.2524
▁사업	-9.25333
▁받는	-9.25342
▁만들	-9.25351
▁지나	-9.25362
이면	-9.25385
거에요	-9.25391
▁부탁드립니다	-9.25408
▁가운데	-9.25495
▁건지	-9.25518
뭐	-9.25526
하자	-9.25556
▁만큼	-9.25581
▁E	-9.25596
▁북	-9.25627
▁글을	-9.25641
▁쉬	-9.25681
▁홍	-9.25702
가는	-9.25719
우리	-9.25727
는게	-9.2574
038	-9.25757
▁한다고	-9.25758
군요	-9.25809
r	-9.25881
마다	-9.26022
▁표	-9.26022
척	-9.26048
▁싶은데	-9.26051
으니까	-9.26143
▁부분	-9.26171
돌	-9.26184
▁인터넷	-9.26312
▁2.	-9.2636
▁당신	-9.26394
▁했	-9.26415
▁어찌	-9.26642
▁행복	-9.26712
▁자유	-9.2681
▁그것이	-9.26922
시는	-9.26985
▁P	-9.27
탈	-9.27035
▁몸을	-9.2712
▁대화	-9.27193
▁월	-9.27391
없는	-9.27435
▁봐	-9.27659
생각	-9.27662
▁있다면	-9.27674
▁주변	-9.27867
▁드	-9.27971
장이	-9.27994
▁기록	-9.28115
..?	-9.28216
▁내려	-9.28301
▁음악	-9.28674
▁사건	-9.28804
잔	-9.28998
▁거기	-9.29037
들어	-9.29086
▁오빠	-9.29121
head	-9.29136
는거	-9.2951
같이	-9.29664
▁재산	-9.29676
▁유지	-9.29699
리고	-9.29819
▁시간을	-9.29854
▁인식	-9.29871
더라	-9.29871
▁회	-9.29916
끼	-9.29924
▁않으면	-9.29932
▁방법이	-9.30037
▁됐	-9.30038
책	-9.30193
▁학	-9.30259
없	-9.3028
▁주장	-9.30436
▁생산	-9.30461
▁키	-9.30502
렸다	-9.30639
장을	-9.30668
▁한다는	-9.30832
▁떨	-9.30848
▁성장	-9.30972
▁전문	-9.3104
▁이건	-9.31058
▁마치	-9.31064
▁신고	-9.31086
움	-9.31184
▁후에	-9.31198
▁일은	-9.31203
▁밀	-9.3124
▁혼	-9.31478
▁베	-9.31571
인데요	-9.31596
▁눈에	-9.31651
▁힘들어	-9.31693
셨	-9.31693
▁아들	-9.31996
·	-9.3201
▁중에	-9.32162
b	-9.32199
▁문제는	-9.32236
▁학생	-9.32293
▁평가	-9.32309
했어요	-9.32319
▁싶다	-9.32434
▁대통령	-9.32482
▁근무	-9.32511
▁버	-9.32637
▁아직도	-9.32691
▁터	-9.32697
갑	-9.32812
겠지	-9.33
▁가야	-9.33164
▁하나요	-9.33208
▁1.	-9.3327
께서	-9.33385
▁작품	-9.33404
en	-9.33452
년에	-9.33508
례	-9.33509
or	-9.33516
엄마	-9.33544
▁그랬	-9.33585
▁높은	-9.33586
▁뒤에	-9.33698
▁두고	-9.33729
족	-9.33749
▁설	-9.33765
▁기분이	-9.33851
▁싶	-9.34083
▁아래	-9.34092
▁모르	-9.34102
사회	-9.34179
k	-9.34232
▁것이었다	-9.34275
▁부탁	-9.34317
▁빈	-9.34384
액	-9.34419
▁합	-9.34512
VP	-9.3456
거든	-9.34574
홍	-9.34621
▁했던	-9.34699
▁잇	-9.34821
▁떠	-9.34842
▁직	-9.34892
극	-9.34902
▁머	-9.34904
▁생각해	-9.35041
▁있으며	-9.35052
▁말하는	-9.35098
▁수밖에	-9.35297
▁보이	-9.35331
▁보이는	-9.35347
▁그렇지	-9.3541
▁돈이	-9.35441
었던	-9.35635
▁싶어요	-9.35657
ᄏᄏᄏ	-9.35725
▁주고	-9.35761
▁국민	-9.35854
것도	-9.3587
더군요	-9.35917
▁승	-9.35959
하려고	-9.35974
BE	-9.35993
▁이것은	-9.36
▁다니	-9.36131
죄	-9.36135
▁힘이	-9.36166
▁광	-9.36166
g	-9.36192
▁인사	-9.36298
▁사이에	-9.36345
북	-9.36366
▁나무	-9.36385
▁ᄒᄒ	-9.36426
▁문학	-9.36438
못	-9.36501
션	-9.36537
▁인해	-9.36551
련	-9.36619
▁달리	-9.3665
10	-9.36816
▁등의	-9.36859
▁마카님	-9.36861
▁빼	-9.3687
그러	-9.36874
▁이유	-9.37042
잘	-9.37111
▁땅	-9.37116
잡	-9.37132
그럼	-9.37148
하시	-9.37176
▁알게	-9.37178
▁놓	-9.37199
▁느낌이	-9.37318
헌	-9.37411
사가	-9.37432
▁느낌	-9.37535
▁항	-9.37535
▁남편	-9.37564
내가	-9.3757
▁제발	-9.37635
다니	-9.37721
▁계	-9.37793
▁놀	-9.37827
▁예를	-9.3786
▁성격	-9.37912
갔다	-9.37998
른	-9.3803
▁생각하고	-9.38046
▁이름	-9.38108
014	-9.38151
▁들어서	-9.38204
시고	-9.38211
▁반대	-9.3832
였	-9.38321
▁있었는데	-9.3848
040	-9.38599
▁그래요	-9.38623
▁눈이	-9.38654
▁소설	-9.38675
밀	-9.38718
▁근	-9.38733
는데요	-9.38824
”	-9.38828
▁그림	-9.38835
충	-9.38885
했	-9.38896
▁그렇	-9.38955
an	-9.38963
커	-9.39029
▁분석	-9.39054
암	-9.39165
▁훨씬	-9.3919
▁고개를	-9.39255
▁시험	-9.39288
ing	-9.39333
▁이때	-9.39343
▁레	-9.39415
▁동시에	-9.39524
▁빠져	-9.3956
조차	-9.39577
~~	-9.39628
.......	-9.39832
▁잡아	-9.3985
▁패	-9.39865
겠	-9.39919
▁석	-9.40066
▁맞아	-9.4016
▁가슴	-9.40263
▁아파트	-9.40266
누	-9.40303
▁조사	-9.4032
▁부모님	-9.40322
O	-9.40341
데요	-9.40342
▁걸어	-9.40424
▁여행	-9.40519
에요	-9.40533
▁투	-9.40668
슬	-9.40669
030	-9.4083
▁집중	-9.4094
하다가	-9.4095
▁안에	-9.40963
▁일부	-9.41025
하나	-9.41142
▁어린	-9.41282
▁우리의	-9.41427
간다	-9.41464
▁언어	-9.41503
보다는	-9.41519
▁그저	-9.41562
▁할머니	-9.41676
▁마음에	-9.41692
▁풍	-9.41707
▁실제로	-9.41725
▁니가	-9.41774
.....	-9.41801
▁불안	-9.41933
▁고려	-9.42019
분이	-9.42077
곳	-9.42105
전에	-9.42115
▁있어야	-9.42182
▁시작했다	-9.42203
▁전쟁	-9.42219
▁계획	-9.42264
▁개발	-9.42292
▁육	-9.42293
▁좋다	-9.42412
나는	-9.42451
▁가면	-9.42522
▁정리	-9.42634
▁쪽	-9.42784
했을	-9.42825
▁100	-9.42837
▁북한	-9.4291
예요	-9.42928
▁봉	-9.42974
▁포기	-9.43047
풍	-9.43073
▁검사	-9.4314
▁처리	-9.43261
▁저에게	-9.43305
쓰	-9.43392
▁의식	-9.43417
▁전체	-9.43426
JC	-9.43444
▁했어요	-9.43599
▁정부	-9.43601
▁말도	-9.43622
인이	-9.43772
▁이어	-9.43823
총	-9.43827
▁지원	-9.43942
운동	-9.43977
▁같고	-9.4413
▁ᅮᅮ	-9.44277
▁포함	-9.44403
놓고	-9.4441
ᄏ	-9.44476
▁답	-9.44772
갔	-9.44788
▁싸	-9.4482
봐	-9.44913
돼	-9.44923
훈	-9.44935
▁국제	-9.45112
▁가끔	-9.45206
답	-9.45242
던데	-9.45244
▁동생	-9.45278
▁음식	-9.45344
▁분명	-9.45482
▁돌아	-9.45542
착	-9.45664
▁아까	-9.45839
▁다양한	-9.45934
▁하시	-9.45988
맞	-9.46158
▁합의	-9.46336
▁하나의	-9.4634
▁대답	-9.46341
▁경우에는	-9.46349
▁신문	-9.46357
▁영향을	-9.46383
▁당장	-9.46448
▁3.	-9.46569
▁탈	-9.46651
▁완전히	-9.46846
▁나쁜	-9.46859
▁없다는	-9.4686
▁가고	-9.46879
▁도움이	-9.46949
따	-9.47059
▁나온	-9.47087
▁않다	-9.47106
▁어려운	-9.47118
가지고	-9.47167
▁부모	-9.47171
▁저한테	-9.47238
좀	-9.47243
최	-9.47247
f	-9.47275
▁보여	-9.47279
▁되었습니다	-9.47282
▁애들	-9.47312
치고	-9.47334
▁자기가	-9.47359
▁갔다	-9.47426
▁참여	-9.47454
▁솔직히	-9.47645
렁	-9.47906
▁말해	-9.47948
▁도시	-9.47992
▁맛	-9.48008
짓	-9.48017
▁그녀의	-9.48024
▁ᄏᄏᄏᄏᄏ	-9.48092
▁숨	-9.48144
▁않습니다	-9.48168
궁	-9.48227
듯이	-9.48243
▁고등학교	-9.48256
▁그동안	-9.48293
▁그들의	-9.48293
▁않았	-9.48312
퍼	-9.48392
머	-9.48399
▁보니까	-9.48493
▁있었	-9.48498
주세요	-9.48514
▁최근	-9.48567
세기	-9.48591
▁타고	-9.48607
▁덜	-9.48656
R	-9.48666
(1	-9.4868
▁가게	-9.48728
나라	-9.48801
▁했지만	-9.48825
▁옆에	-9.48899
탁	-9.48903
▁"/	-9.48975
▁아닌가	-9.48978
때문에	-9.49067
▁있었습니다	-9.49092
린다	-9.49141
▁벌써	-9.49201
▁아무도	-9.49264
▁숙	-9.49312
견	-9.49432
BB	-9.49494
0006	-9.49556
▁19	-9.49596
으로서	-9.49615
▁생각하는	-9.49644
▁이젠	-9.49658
▁판	-9.49716
▁왔다	-9.49795
▁위험	-9.49803
in	-9.49962
▁여전히	-9.49985
빈	-9.49998
▁문제를	-9.50032
▁임신	-9.50107
효	-9.50203
▁민족	-9.50222
▁말은	-9.50278
▁때도	-9.50285
▁다들	-9.50356
▁of	-9.50377
▁같아서	-9.50451
일이	-9.50513
▁궁금합니다	-9.50645
▁우리나라	-9.50654
밥	-9.50732
관계	-9.50745
▁상처	-9.50748
▁찬	-9.50767
으로부터	-9.5078
▁나한테	-9.508
▁올해	-9.5086
▁넌	-9.50862
>:	-9.50881
리를	-9.50935
le	-9.51103
▁달려	-9.51209
▁이번에	-9.51245
▁D	-9.51292
▁상대	-9.51295
▁그니까	-9.51316
▁고객	-9.51354
re	-9.51467
▁좋을	-9.51576
▁라는	-9.51578
육	-9.51659
▁때마다	-9.51742
▁관심	-9.5176
겠다고	-9.51801
▁긴	-9.51804
까봐	-9.51807
▁뭐가	-9.51859
▁식으로	-9.51923
▁소개	-9.51938
기간	-9.51955
▁이유는	-9.51969
▁공간	-9.52004
완	-9.52013
▁교회	-9.52048
N	-9.52054
XR	-9.52233
져서	-9.52252
▁라	-9.52259
▁꺼내	-9.52333
했지만	-9.52408
▁특	-9.52431
▁지내	-9.52497
▁넣	-9.52513
▁소송	-9.52564
▁되는데	-9.52654
ar	-9.52754
▁먹는	-9.52771
▁않아요	-9.52799
▁쓴	-9.52838
▁집을	-9.52882
시키는	-9.5289
▁발생	-9.52913
▁쓰고	-9.53057
▁엄	-9.5314
하다고	-9.53157
▁충분히	-9.53159
득	-9.53176
▁오는	-9.53187
보면	-9.53229
▁현대	-9.53234
▁학원	-9.53253
▁불러	-9.53311
▁놓고	-9.53367
지가	-9.53474
▁50	-9.53494
▁병원에	-9.53502
느냐	-9.53522
▁집안	-9.53573
중에	-9.53609
▁이러	-9.5362
시켜	-9.53623
▁마련	-9.53642
▁으	-9.53723
▁인간의	-9.53804
▁보인다	-9.53818
▁기본	-9.53914
▁화가	-9.53949
__04/	-9.5396
잇	-9.54012
▁계약	-9.5405
▁광고	-9.5405
▁이제는	-9.54053
낼	-9.54077
친구	-9.54138
하니	-9.54305
▁거리	-9.54366
▁이용	-9.54393
▁끊	-9.54513
▁했고	-9.54569
▁전부	-9.54622
▁분이	-9.54721
▁몸이	-9.54781
▁대부분	-9.54809
▁침	-9.5484
▁향	-9.54858
▁척	-9.55
▁관계를	-9.55085
▁부부	-9.55135
▁향해	-9.55146
▁하늘	-9.55293
015	-9.55337
▁제시	-9.55349
▁보며	-9.55415
눈	-9.55498
▁죄	-9.55575
▁쳐	-9.55593
스러운	-9.55643
▁생리	-9.55662
▁나에게	-9.55705
서는	-9.55763
▁힘을	-9.55855
▁오늘은	-9.55859
!!!	-9.55889
닥	-9.5596
▁돌아가	-9.55974
▁기간	-9.55983
함을	-9.56005
▁변호사	-9.56035
▁사실은	-9.56056
▁경우가	-9.56067
▁시대	-9.56077
▁발표	-9.56081
▁게임	-9.56106
▁세상	-9.56119
▁보호	-9.56162
능	-9.56166
았	-9.56201
▁따로	-9.56215
▁하다	-9.56232
졌	-9.56234
is	-9.56235
▁통해서	-9.56242
이지만	-9.56247
it	-9.5627
▁the	-9.56324
회사	-9.56335
▁꾸	-9.56348
▁직업	-9.56364
▁그것도	-9.56398
▁얼굴을	-9.56483
▁ᆫ다	-9.56523
▁등이	-9.5654
▁수술을	-9.56625
더라도	-9.5665
▁곳이	-9.56675
하도록	-9.56691
하기도	-9.56813
▁폭	-9.56819
▁감사	-9.56826
▁필	-9.56846
▁바람	-9.56914
▁후회	-9.56969
▁피해	-9.57045
▁해주	-9.57089
문제	-9.5711
패	-9.5712
▁고생	-9.57123
▁책임	-9.57171
▁비판	-9.57209
▁방문	-9.57224
▁검	-9.57233
▁본인	-9.57251
년대	-9.57265
▁당신이	-9.57318
▁반드시	-9.57412
▁뒷	-9.57452
함으로써	-9.5748
▁넘어	-9.57488
치는	-9.57526
▁욕	-9.57529
▁소리를	-9.57639
휴	-9.57707
년이	-9.57738
▁노동	-9.57882
▁헤	-9.57895
▁죽을	-9.57925
제가	-9.5799
보는	-9.57995
▁칼	-9.58001
▁말할	-9.58041
L	-9.58181
▁약속	-9.582
기만	-9.58215
ETN	-9.58237
▁안되	-9.58294
▁해보	-9.58304
▁이상한	-9.58318
DO	-9.58362
▁찾	-9.58454
▁할지	-9.58457
▁하는지	-9.58492
▁없는데	-9.58574
▁자식	-9.58585
▁젊은	-9.58632
받	-9.58639
▁입니다	-9.58702
▁월급	-9.58774
려면	-9.5886
▁의심	-9.58902
▁폐	-9.59139
ᄒᄒ	-9.59162
▁F	-9.59214
▁고통	-9.59232
였습니다	-9.5939
▁중심	-9.59439
▁한달	-9.59506
니깐	-9.59511
리가	-9.5952
▁낙	-9.59545
.”	-9.59645
▁뛰어	-9.59847
▁행위	-9.59872
▁교수	-9.59902
▁것과	-9.59966
▁저의	-9.59974
검	-9.59987
▁실패	-9.60159
었고	-9.60161
▁만든	-9.60172
▁그날	-9.60182
▁과거	-9.60226
플	-9.60313
▁희	-9.60343
▁여러분	-9.60366
하라	-9.60426
▁읽	-9.60428
▁아예	-9.60607
▁놀라	-9.60643
▁당연히	-9.60696
▁말에	-9.60711
▁그러고	-9.60723
▁어쩔	-9.60944
▁공격	-9.60961
측	-9.60964
▁18	-9.60983
▁운영	-9.61081
▁쓰는	-9.61086
왔	-9.61104
▁일찍	-9.61117
엄	-9.612
▁남편이	-9.61214
AD	-9.61437
▁그렇다고	-9.61444
▁뇌	-9.61508
▁휘	-9.61519
▁까	-9.61527
했어	-9.6153
하세요	-9.61585
▁비교	-9.61589
▁짓	-9.61611
▁가득	-9.61613
▁경찰	-9.61626
▁다음과	-9.61634
▁못할	-9.61676
런	-9.61718
▁추천	-9.61724
적이고	-9.61764
▁말한다	-9.61782
▁아이가	-9.61788
▁법률	-9.61803
0020	-9.61816
▁정책	-9.61896
쳤	-9.61934
▁궁	-9.62084
▁수준	-9.62094
▁길을	-9.62265
▁위해서는	-9.62303
▁골	-9.62311
수를	-9.6234
▁괜찮	-9.62374
▁얼굴이	-9.62409
▁퍼	-9.62482
▁예술	-9.62587
h	-9.62618
▁14	-9.62675
▁대로	-9.62704
▁되게	-9.62717
▁지적	-9.62843
IO	-9.62891
▁작가	-9.62893
▁때까지	-9.62896
▁경쟁	-9.62961
▁모르겠어요	-9.63068
▁구성	-9.63111
▁[	-9.63124
▁웃	-9.63151
▁으로	-9.63262
▁부르	-9.63273
본다	-9.63306
▁먹을	-9.63353
▁취	-9.63383
▁적용	-9.63452
▁구조	-9.63507
▁불구하고	-9.63535
▁앉	-9.63601
▁만드는	-9.63607
▁아버지가	-9.6367
▁접	-9.63742
▁할까요	-9.63858
▁마을	-9.63881
▁상품	-9.63948
▁전략	-9.64029
▁싶지	-9.6403
▁16	-9.64039
와서	-9.64093
▁바라	-9.64125
욱	-9.6413
▁40	-9.64165
▁자리	-9.64207
......."	-9.64249
찰	-9.64285
▁쓸	-9.64364
▁낮	-9.644
▁알려주세요	-9.64468
▁많다	-9.6449
명이	-9.64595
▁농	-9.64619
▁몰라	-9.64723
짐	-9.64742
▁연애	-9.6481
▁원하는	-9.64884
▁네네	-9.64899
거라	-9.6493
▁지배	-9.64975
▁소리가	-9.64978
려는	-9.65019
▁이유가	-9.65049
▁바다	-9.6508
▁남아	-9.65091
시에	-9.65107
▁언론	-9.65188
월에	-9.65222
이가	-9.65281
또	-9.65298
▁가격	-9.65321
▁보기	-9.65341
▁그러한	-9.65368
▁작	-9.65373
▁책을	-9.6543
▁엄마는	-9.65432
▁건물	-9.65483
▁돌려	-9.6559
하려	-9.65614
▁않게	-9.65676
▁컴퓨터	-9.65694
▁잠깐	-9.65695
▁가능	-9.6571
▁최고	-9.65714
▁사회적	-9.65737
▁자신	-9.65739
▁독립	-9.6575
▁I	-9.65753
했다고	-9.65833
▁과학	-9.65838
▁공감	-9.6593
힌	-9.65969
▁사람도	-9.66131
건지	-9.66161
▁T	-9.66235
028	-9.66268
▁확	-9.66279
력을	-9.66397
들에	-9.66412
교육	-9.66441
▁상상	-9.66448
▁있도록	-9.66461
이라면	-9.66533
자고	-9.6655
▁산업	-9.66652
▁모습이	-9.66675
▁이것	-9.66794
▁정상	-9.66813
▁아픈	-9.66946
▁왼쪽	-9.6695
▁국내	-9.6697
▁좋겠다	-9.66996
렸	-9.67024
▁우울증	-9.67031
▁남성	-9.6704
탕	-9.67103
▁부인	-9.67165
쉬	-9.67225
▁작성	-9.67353
▁어서	-9.67355
▁13	-9.67422
▁아프	-9.67439
ed	-9.67506
서를	-9.67528
▁간다	-9.67529
▁은행	-9.67539
▁생기	-9.67549
25	-9.67563
▁삶을	-9.67583
째	-9.67588
하려는	-9.67655
▁미리	-9.67674
욕	-9.67731
만이	-9.67812
▁이론	-9.67888
▁지금도	-9.67901
▁섬	-9.68011
▁그렇다면	-9.68069
야지	-9.6813
▁인생	-9.68134
▁있었고	-9.68174
▁자체	-9.68197
...?	-9.68223
▁죽음	-9.68242
▁17	-9.68251
▁피부	-9.6828
수도	-9.68293
▁과연	-9.68304
흥	-9.6831
춘	-9.68317
▁G	-9.68318
▁여기에	-9.68319
▁세상에	-9.68384
▁해석	-9.6841
있다	-9.68411
▁되나요	-9.68423
둘	-9.68466
▁부분이	-9.68507
▁것에	-9.68534
▁붙	-9.68541
▁조건	-9.68547
▁한편	-9.6855
▁가치	-9.68558
▁종교	-9.68559
▁비슷한	-9.68647
▁명의	-9.68649
▁폭력	-9.68728
감을	-9.68751
▁다만	-9.68823
▁대하여	-9.68843
▁규정	-9.68845
▁이는	-9.68887
▁수는	-9.68947
▁전화를	-9.68958
▁부족	-9.69088
▁영어	-9.69101
▁하자	-9.69199
오는	-9.69239
▁필요가	-9.6924
▁선물	-9.69292
으나	-9.69301
▁테	-9.69305
▁커	-9.6932
on	-9.69334
▁보이지	-9.69337
▁단계	-9.69339
상을	-9.6948
▁아이를	-9.69502
ᄏᄏᄏᄏ	-9.6954
▁경영	-9.69564
▁'/	-9.69573
▁극	-9.69798
▁연결	-9.69892
▁시도	-9.69928
▁프로	-9.69961
▁모른다	-9.69966
문화	-9.70101
▁헐	-9.70193
▁시기	-9.70296
▁대상	-9.70379
▁파악	-9.70414
길래	-9.70538
▁논	-9.70597
▁것이라고	-9.70646
▁형성	-9.70656
▁남자친구	-9.70672
▁역할을	-9.70679
▁반복	-9.70693
▁하였다	-9.70757
▁평생	-9.70845
힘들다	-9.70847
▁아닙니다	-9.70855
▁아닌데	-9.70898
해보	-9.70959
▁수업	-9.70963
▁카드	-9.71
▁며칠	-9.71028
▁부담	-9.71095
▁효	-9.7113
▁이럴	-9.71215
▁뒤로	-9.71419
▁제공	-9.71428
▁먹어	-9.7146
▁여드름	-9.71521
▁모양	-9.71533
▁자살	-9.71545
▁아빠가	-9.71565
▁것인가	-9.71573
▁술을	-9.7162
▁지식	-9.71624
으면서	-9.71628
▁증거	-9.71649
한다면	-9.71718
베	-9.71756
▁완전	-9.71769
▁사람들의	-9.71841
▁이와	-9.71946
되면	-9.71963
^^	-9.72056
▁눈물	-9.72074
하신	-9.7209
십	-9.72401
▁물어보	-9.72409
풀	-9.72482
▁사람에게	-9.72486
▁개념	-9.72525
▁방법을	-9.72629
▁머리를	-9.72722
▁우울	-9.7274
틀	-9.72742
▁바뀌	-9.72765
▁듣	-9.72819
▁다리	-9.72947
▁싶어서	-9.72975
▁않을까	-9.7309
아이	-9.73093
▁업무	-9.73155
나무	-9.73197
▁나타나	-9.73215
▁계산	-9.73283
▁지급	-9.73365
슨	-9.73378
▁어쩌	-9.73378
▁걱정이	-9.73394
▁쪽으로	-9.73429
혈	-9.73512
▁H	-9.73551
물을	-9.73569
드는	-9.73662
▁루	-9.73728
▁된다고	-9.73842
을까	-9.73876
▁청구	-9.73899
▁프랑스	-9.73907
사는	-9.73964
▁상담을	-9.73981
▁문자	-9.74013
▁있을까	-9.74092
학교	-9.74151
뿐	-9.7418
▁운전	-9.74182
▁다음에	-9.74217
▁재판	-9.74219
▁운	-9.74263
▁상황에서	-9.74297
자로	-9.74299
▁갔	-9.74317
▁표정	-9.74376
▁ᄏᄏᄏᄏᄏᄏ	-9.74398
▁도착	-9.74408
▁나올	-9.74524
▁나머지	-9.74529
▁만족	-9.7453
▁제도	-9.74617
▁디	-9.7464
▁거기에	-9.74703
▁잠을	-9.7473
만한	-9.74761
▁길이	-9.74797
▁믿	-9.74827
▁아이들	-9.74857
▁때부터	-9.74864
▁오른쪽	-9.74866
셔	-9.74869
▁곳에	-9.74872
▁턱	-9.74887
▁브	-9.74911
▁능력	-9.74942
얼	-9.74964
▁L	-9.74964
▁어디서	-9.74974
MAJ	-9.75065
▁착	-9.75065
▁생명	-9.7508
▁흐	-9.751
F	-9.7513
▁주로	-9.7514
▁아니에요	-9.75203
▁주제	-9.75287
x	-9.753
▁21	-9.75301
0030	-9.75318
▁실제	-9.75416
▁꼬	-9.7547
여서	-9.75501
B	-9.75548
▁높	-9.75564
▁것인지	-9.7558
▁모르고	-9.75581
▁참고	-9.75601
▁출근	-9.75614
▁작업	-9.75615
▁수행	-9.75689
▁알려	-9.75834
▁활용	-9.75847
▁조금씩	-9.75852
032	-9.75936
▁유럽	-9.75984
▁긴장	-9.76104
▁에서	-9.76113
왔다	-9.76114
▁웅	-9.76166
▁부동산	-9.76174
▁장난	-9.76249
▁아냐	-9.76252
▁입을	-9.76303
▁죽어	-9.76309
권을	-9.76374
▁찍	-9.76434
▁둘째	-9.76496
낸	-9.76536
▁독일	-9.76541
▁공부를	-9.76641
▁못했다	-9.76644
▁외국	-9.7667
▁님	-9.76734
▁냉	-9.76754
문학	-9.76766
▁풀어	-9.76799
▁분들	-9.76818
▁깊은	-9.76836
감이	-9.76849
력이	-9.7703
해지	-9.77066
▁페	-9.77081
▁올라	-9.7713
느	-9.77182
▁흘러	-9.77288
셔서	-9.77361
▁짜	-9.77407
▁무리	-9.77425
상의	-9.77465
였던	-9.77473
▁해당	-9.77554
▁환자	-9.77584
▁충	-9.77614
▁안정	-9.77635
▁벗어나	-9.77657
▁업	-9.77666
줘	-9.77702
▁언제나	-9.77801
ᅮ	-9.77856
수록	-9.77867
▁자체가	-9.7792
원이	-9.7794
받고	-9.77954
▁티	-9.77988
▁기사	-9.7802
▁곡	-9.78038
엇	-9.78049
▁놈	-9.78061
▁내게	-9.78108
▁사무실	-9.78116
사의	-9.78155
웅	-9.78202
생활	-9.78203
▁계시	-9.78234
▁아무런	-9.78316
G	-9.78416
▁격	-9.78429
지금	-9.78436
▁이혼을	-9.78501
▁굴	-9.7851
▁생긴	-9.7852
▁프로그램	-9.78568
징	-9.7858
딩	-9.78606
꾸	-9.78636
▁무시	-9.7868
머리	-9.78731
▁경우는	-9.78773
▁프	-9.78774
▁단지	-9.78817
▁사상	-9.7885
▁의한	-9.7893
▁잡고	-9.78966
▁커피	-9.7898
▁취업	-9.78982
▁증가	-9.79012
▁who	-9.79016
▁이것이	-9.79028
▁받지	-9.79034
답니다	-9.7904
▁효과	-9.79071
▁때가	-9.79089
▁자동차	-9.79126
▁가능한	-9.79137
츠	-9.7917
람	-9.79242
▁*	-9.79265
▁결코	-9.79272
▁맨날	-9.79296
▁아침에	-9.79298
▁누군가	-9.79302
▁의지	-9.79387
▁싫	-9.79424
ol	-9.79424
▁기다리	-9.79429
▁상당히	-9.79446
▁and	-9.79465
▁위치	-9.79483
▁저랑	-9.79484
나가	-9.79506
대를	-9.79716
이지	-9.79742
▁끼	-9.79769
▁삶의	-9.79769
▁옆	-9.79817
▁이걸	-9.79837
▁아니야	-9.79852
▁들어오	-9.79854
▁하다가	-9.79857
▁알았	-9.79934
▁전통	-9.79982
》	-9.80039
▁집단	-9.8005
퇴	-9.80052
▁거래	-9.80084
▁중학교	-9.80091
▁덕	-9.80105
하시는	-9.80114
▁맺	-9.80199
▁못해	-9.80205
▁색	-9.80289
▁시절	-9.80292
▁강조	-9.80373
끝	-9.80417
폐	-9.80424
▁좋지	-9.80446
▁존	-9.80498
▁품	-9.80517
라구	-9.80529
;;	-9.80544
▁갑	-9.80566
▁관심을	-9.80577
▁오후	-9.80613
▁받았	-9.80616
▁만한	-9.80648
렌	-9.80652
ᄒ	-9.80677
▁기능	-9.80715
택	-9.80733
▁칠	-9.80738
▁대해서는	-9.80801
▁N	-9.80849
▁좋겠어요	-9.80914
▁대체	-9.80915
044	-9.8097
▁하려고	-9.81013
가서	-9.81049
▁도와주세요	-9.81141
▁하니	-9.81152
><	-9.81152
▁허리	-9.81173
▁걸로	-9.81429
▁날이	-9.81445
인의	-9.8152
▁나왔	-9.81629
▁선거	-9.81719
▁증상	-9.81734
▁생각도	-9.81735
▁데리고	-9.81736
▁아님	-9.81772
▁대출	-9.81845
024	-9.81877
우울해	-9.81883
혁	-9.8192
▁졸업	-9.8201
▁보자	-9.82087
▁권력	-9.82093
▁넣어	-9.82094
살이	-9.82139
▁부정	-9.82247
▁들었다	-9.82311
▁차라리	-9.82364
라서	-9.82374
▁의원	-9.8245
화를	-9.8246
▁억	-9.8262
혼	-9.82749
님이	-9.82752
▁약을	-9.82779
ch	-9.82789
쳤다	-9.82802
명의	-9.82845
▁태도	-9.82864
▁당신은	-9.82946
▁그를	-9.82949
▁25	-9.8311
접	-9.83113
es	-9.83116
▁힘들고	-9.83118
방법	-9.83122
▁대중	-9.83154
▁한쪽	-9.8319
▁증	-9.83248
둔	-9.83257
▁눈치	-9.83299
▁다녀	-9.83331
▁아니었다	-9.83505
▁달라	-9.8351
▁안전	-9.83566
▁휴	-9.83592
▁가능성이	-9.83615
▁희망	-9.83659
빠	-9.83725
▁그러니	-9.83757
▁마주	-9.8376
▁예상	-9.83778
▁눈물이	-9.83791
대요	-9.83813
하니까	-9.83862
▁낼	-9.83874
스트레스받아	-9.83877
▁새로	-9.8389
▁판매	-9.83947
▁꽤	-9.84018
그런	-9.8402
폭	-9.84038
▁심한	-9.84138
찌	-9.84194
건데	-9.84252
▁자고	-9.84256
▁과정	-9.84282
▁위하여	-9.84286
됐	-9.84413
▁벽	-9.84509
웃	-9.84531
▁버스	-9.84568
▁안에서	-9.84631
▁손에	-9.84747
▁오르	-9.84784
▁기준	-9.84856
좋	-9.84895
MC	-9.84908
시킬	-9.84951
▁분명히	-9.84961
▁너무나	-9.84997
▁여자가	-9.85009
▁왜냐하면	-9.85037
겠어	-9.85075
▁심지어	-9.85083
ᅮᅮ	-9.85091
▁듯한	-9.85103
▁문을	-9.85139
▁거기서	-9.85199
▁자료	-9.85201
▁너는	-9.85319
at	-9.85335
▁겨우	-9.85575
▁일도	-9.85578
0028	-9.85619
▁도대체	-9.8562
▁이에	-9.8572
성의	-9.85748
▁할아버지	-9.85877
균	-9.85887
▁저기	-9.85887
▁새벽	-9.85897
▁되었	-9.85904
▁따른	-9.85943
념	-9.85944
▁제거	-9.86007
▁천천히	-9.86024
▁높이	-9.86037
▁사람들을	-9.86054
일에	-9.86161
▁제품	-9.86174
▁무조건	-9.86193
꼬	-9.86199
▁꺼	-9.86246
셨어요	-9.86273
▁말이다	-9.86355
▁고민이	-9.86355
▁통일	-9.86392
)...	-9.86507
ation	-9.86538
▁관련된	-9.86653
시키고	-9.86706
▁근거	-9.86738
▁어머니가	-9.86745
성과	-9.86745
▁행사	-9.86747
▁탓	-9.86781
▁일주일	-9.86898
▁분위기	-9.87018
▁군사	-9.87024
▁영국	-9.87088
▁맞아요	-9.87169
스는	-9.87175
▁그들이	-9.87198
▁삶	-9.87319
▁오늘도	-9.87358
▁마시	-9.87373
▁그러다	-9.87388
률	-9.87423
페	-9.87427
▁)/	-9.87438
▁말하고	-9.87486
▁멀리	-9.87488
▁힘들어요	-9.87515
▁어깨	-9.87539
경제	-9.87581
▁봄	-9.87588
▁비해	-9.87651
▁받아야	-9.87724
답답해	-9.87743
▁지지	-9.87743
▁특징	-9.87784
문을	-9.87817
▁내용을	-9.87829
▁있는데요	-9.87879
▁거부	-9.88003
▁도움을	-9.88004
▁접근	-9.88045
▁목표	-9.88077
▁입장	-9.88158
였는데	-9.88172
으로써	-9.88197
▁얼른	-9.88264
▁상황을	-9.88274
▁배우	-9.88322
팅	-9.88324
▁얼	-9.88338
▁미친	-9.8835
▁올려	-9.88415
하구	-9.88437
▁회의	-9.88443
▁알바	-9.88463
▁경기	-9.88471
▁동네	-9.88476
▁집으로	-9.88496
해주	-9.88535
▁돼요	-9.88574
▁살짝	-9.88591
▁가까이	-9.88611
좌	-9.88703
▁올라가	-9.88844
으시	-9.88896
[	-9.88909
▁마시고	-9.88927
▁안나	-9.88947
드리	-9.89067
▁드리	-9.89079
▁일상	-9.89088
▁못한다	-9.89152
겠다는	-9.89171
▁분야	-9.89245
값	-9.89255
▁알아보	-9.89284
▁빛	-9.89288
▁녹	-9.8934
관리	-9.89353
었어	-9.8942
싸	-9.89478
▁남은	-9.89479
▁W	-9.89513
▁인물	-9.89521
▁내리	-9.89563
상태	-9.89607
위를	-9.8961
▁옥	-9.8968
▁출발	-9.89689
시장	-9.89798
년간	-9.8983
▁머리가	-9.89831
한데	-9.89845
▁임금	-9.89882
아버지	-9.89897
▁부터	-9.89928
▁직원	-9.90003
▁회복	-9.9001
▁24	-9.90035
웠	-9.90041
▁아무래도	-9.90048
▁땐	-9.90126
쪽으로	-9.90131
▁등등	-9.90162
▁가만히	-9.90187
<	-9.90201
는건	-9.90227
팀	-9.90232
▁일에	-9.90317
▁퇴사	-9.90344
▁맘	-9.90353
▁물었다	-9.90371
▁중앙	-9.90446
▁들었	-9.90458
▁핸드폰	-9.90489
압	-9.90495
▁거지	-9.90514
▁무엇을	-9.9053
▁사람들에게	-9.90666
남자	-9.90685
▁혜	-9.90735
▁주식	-9.90738
▁꿈을	-9.90748
▁친구들	-9.9079
▁누나	-9.90812
▁없었	-9.90922
▁건데	-9.90992
▁탄	-9.91028
맥	-9.9103
에게는	-9.91033
▁화장실	-9.91055
▁ᅮ	-9.91058
▁성적	-9.91073
▁애기	-9.91088
클	-9.91091
▁만난	-9.91114
▁갚	-9.91128
▁몰랐	-9.91152
가지	-9.91156
▁하나님	-9.91168
▁문의	-9.9117
▁사과	-9.91301
먹고	-9.91311
▁생각에	-9.91321
낮	-9.91333
니까요	-9.91353
겟	-9.91376
▁느끼	-9.91447
▁서비스	-9.91519
쿠	-9.91524
▁묻	-9.91547
▁때문	-9.91582
▁R	-9.91587
▁보였다	-9.91588
▁말이야	-9.91707
짝	-9.91714
▁중요	-9.9176
났	-9.91774
▁좌	-9.91792
▁정치적	-9.91806
금을	-9.91819
버리	-9.91858
▁노인	-9.91921
부분	-9.91959
임을	-9.91965
▁ᄏ	-9.91966
▁통화	-9.91979
▁갈등	-9.91991
자들이	-9.91994
내고	-9.92
▁극복	-9.92073
놓	-9.92088
▁4.	-9.92111
▁한다면	-9.92247
▁지구	-9.92332
▁거라고	-9.92366
▁트	-9.92371
▁현상	-9.92401
▁재밌	-9.92439
et	-9.92445
▁가입	-9.92582
▁선생	-9.92634
자리	-9.92697
▁드립니다	-9.92698
오늘	-9.92769
▁철학	-9.92835
▁마리	-9.92852
▁창조	-9.92876
햇	-9.92909
▁금방	-9.92912
▁겨울	-9.92974
▁본인이	-9.93046
롱	-9.93125
물이	-9.93229
BF	-9.93322
여자	-9.93348
▁전문가	-9.93363
▁같았다	-9.93419
▁과정에서	-9.93427
▁조심	-9.93434
▁전달	-9.93444
끔	-9.9356
▁목적	-9.93576
▁형식	-9.93588
▁나온다	-9.93597
▁뿌리	-9.93598
▁뜨	-9.93694
▁준다	-9.93704
▁등장	-9.93789
준다	-9.93806
▁평화	-9.93818
고싶다	-9.93868
▁목소리	-9.9387
링	-9.93885
▁고소	-9.93924
▁앞서	-9.93964
써	-9.93984
▁기자	-9.93995
▁졸	-9.94017
▁그러므로	-9.94021
▁ᆞ	-9.94022
▁생각해요	-9.94044
▁해외	-9.94047
▁옛날	-9.94047
ic	-9.9406
12	-9.9406
▁잠이	-9.94067
▁이유로	-9.9407
▁기초	-9.94086
▁속으로	-9.9413
▁빌	-9.94151
▁다섯	-9.9416
레이	-9.94191
둥	-9.94426
▁유리	-9.94459
확	-9.94461
튼	-9.94479
▁원칙	-9.94546
버린	-9.94562
▁먼	-9.94567
▁주인	-9.94587
▁《	-9.94653
▁하나도	-9.94714
▁히	-9.94855
시면	-9.94872
▁것만	-9.94913
▁비밀	-9.94949
▁동물	-9.94968
과의	-9.94977
려서	-9.94992
했다는	-9.95067
▁첫째	-9.95071
맛	-9.95121
▁이름을	-9.95126
긋	-9.95166
▁그러면서	-9.9521
▁행정	-9.95309
▁아기	-9.95311
▁미래	-9.95345
▁늦	-9.95372
▁하셨	-9.95442
▁심하게	-9.95469
▁K	-9.95537
▁사장	-9.9562
ᄂ	-9.95642
았습니다	-9.95707
▁바꾸	-9.95757
▁밖으로	-9.95776
▁실수	-9.95873
든지	-9.9592
▁많아	-9.95971
as	-9.95976
▁논의	-9.9612
▁요소	-9.96158
▁멀	-9.9619
▁작용	-9.96206
▁자리에	-9.96267
▁게다가	-9.96274
ur	-9.96413
▁병원에서	-9.96445
리아	-9.96514
아서	-9.96517
▁거에요	-9.966
▁구분	-9.96664
▁공동	-9.96712
▁군대	-9.96732
로운	-9.96753
▁전부터	-9.96759
▁때문이	-9.96766
비를	-9.96806
래요	-9.96821
▁몰	-9.96914
▁손가락	-9.96942
시다	-9.96948
el	-9.96969
▁있죠	-9.96972
▁ᄏᄏᄏᄏᄏᄏᄏ	-9.96984
▁나면	-9.97007
▁네가	-9.97073
텐데	-9.97127
▁안되는	-9.97168
▁널	-9.97227
▁도움	-9.97311
가고	-9.97312
人	-9.97315
▁다니는	-9.9737
▁곳에서	-9.97438
간의	-9.97528
혹	-9.97547
▁카톡	-9.97572
멸	-9.97574
▁영역	-9.97621
블	-9.97628
식이	-9.97707
▁사랑하는	-9.97726
▁지도	-9.97734
▁까지	-9.9775
농	-9.97834
SL	-9.97914
우울	-9.97916
▁점심	-9.97943
▁어쩌면	-9.97954
__05/	-9.97957
들고	-9.97986
0007	-9.98108
▁못하	-9.98112
▁시민	-9.9813
거리는	-9.98154
▁근대	-9.98156
▁끝나	-9.98176
▁핵심	-9.9818
스럽게	-9.98234
▁둔	-9.9825
제를	-9.9825
앗	-9.98261
▁나아가	-9.98281
킨	-9.98314
▁초등학교	-9.98328
동안	-9.98375
되기	-9.98395
▁하니까	-9.98425
▁안하고	-9.98453
함이	-9.98479
▁비용	-9.9848
▁자녀	-9.98484
▁시각	-9.98504
▁저런	-9.98517
▁강화	-9.9853
▁사례	-9.98558
▁몸에	-9.98594
▁다음날	-9.98675
식을	-9.98686
냥	-9.98687
하다는	-9.98824
만을	-9.98832
▁그녀가	-9.98846
▁방법은	-9.98861
▁그만큼	-9.9887
▁얼굴에	-9.98902
▁차례	-9.98903
▁조정	-9.98925
▁하네요	-9.98937
▁괜히	-9.99008
이든	-9.99015
▁완	-9.99019
▁수입	-9.99047
▁될까요	-9.99148
스터	-9.99183
▁주요	-9.99188
▁받았습니다	-9.99199
▁등에	-9.99238
▁다르	-9.99272
NR	-9.9928
></	-9.99321
봐야	-9.99351
▁많고	-9.99417
▁않아서	-9.99429
▁푸	-9.9946
대는	-9.9955
존	-9.9964
▁조언	-9.9967
▁학생들	-9.99682
▁중에서	-9.99683
▁통증이	-9.99688
▁뉴스	-9.99758
▁주세요	-9.99799
▁부모님이	-9.99908
▁작년	-9.99951
▁언	-9.99961
▁이동	-9.99968
내는	-10.0006
▁점에서	-10.0007
▁피해자	-10.0008
▁당신의	-10.0009
▁장소	-10.0025
▁증상이	-10.0025
▁주체	-10.0029
▁어떠한	-10.0034
▁가까운	-10.004
▁두려워	-10.0044
▁아니지만	-10.0044
하라고	-10.0046
이니	-10.005
보니	-10.0054
것이	-10.0057
▁사귀	-10.006
치를	-10.006
▁학교에서	-10.0062
ᄏᄏᄏᄏᄏᄏᄏᄏᄏᄏᄏᄏᄏᄏᄏᄏ	-10.0072
▁보지	-10.0076
▁이들	-10.0084
▁확대	-10.0095
▁의미를	-10.0096
대가	-10.0097
▁맞춰	-10.0098
▁진실	-10.0098
▁여름	-10.0104
▁팀	-10.0107
▁퇴직금	-10.0113
▁하더라도	-10.0118
▁단어	-10.0118
푸	-10.0123
▁맨	-10.0124
이기	-10.0125
▁평소	-10.0126
▁입고	-10.0127
땐	-10.0137
▁되는지	-10.0138
명을	-10.0143
▁아저씨	-10.0146
널	-10.0147
▁아닐까	-10.0148
줘야	-10.015
괴로워	-10.0156
▁늦게	-10.0158
▁정도의	-10.0166
▁나오고	-10.0166
▁빚	-10.0166
▁서류	-10.0169
▁생각합니다	-10.0169
▁밤에	-10.017
▁in	-10.017
▁물건	-10.0173
▁자리를	-10.0174
▁처벌	-10.0176
▁텐데	-10.0194
▁입원	-10.0198
▁요청	-10.02
▁경우에	-10.0201
▁성격이	-10.0205
▁주지	-10.0205
세를	-10.0211
사업	-10.0213
▁걔	-10.0217
하네요	-10.022
▁거실	-10.0224
▁무엇이	-10.023
▁만났	-10.0231
힐	-10.0232
선생님	-10.0232
▁생각은	-10.0236
빛	-10.0241
▁제작	-10.0243
▁가슴이	-10.0247
▁정의	-10.0248
%	-10.0249
마음	-10.0251
▁찌	-10.0253
▁도전	-10.0253
▁실천	-10.0255
▁점을	-10.0257
▁가져	-10.0267
▁그렇지만	-10.0267
▁복용	-10.0269
▁드는	-10.028
▁그녀	-10.0282
▁뭐라	-10.0284
▁장면	-10.029
▁역할	-10.0296
JO	-10.03
▁올리	-10.0303
▁수많은	-10.0306
협	-10.0314
▁아닐	-10.0315
▁먹으면	-10.0316
▁똑같은	-10.0317
▁떨어져	-10.0317
▁아버지는	-10.0318
▁보면서	-10.0329
▁없지만	-10.0329
▁것들이	-10.0332
▁이사	-10.0336
▁연락을	-10.0336
▁오늘날	-10.0339
잖	-10.0344
▁어쨌든	-10.0344
▁뛰	-10.0346
▁한데	-10.0353
▁힘들다	-10.0353
▁열어	-10.0359
제도	-10.036
▁이십	-10.0361
친다	-10.0361
▁담당	-10.0363
▁괜찮아	-10.0363
▁뼈	-10.0364
▁사내	-10.0365
▁뭐야	-10.0369
▁필요하다	-10.0371
▁언급	-10.0374
▁제출	-10.0386
벽	-10.0388
▁어차피	-10.039
였고	-10.0393
놈	-10.0394
▁남자가	-10.0394
▁행동을	-10.0397
뿐만	-10.0398
▁강한	-10.0399
장님	-10.0399
▁굳이	-10.0404
느라	-10.0404
▁한참	-10.0405
집니다	-10.0413
▁장기	-10.0417
▁O	-10.0418
있고	-10.0421
하실	-10.0421
▁대학교	-10.0421
▁정당	-10.0422
▁소득	-10.0423
▁미국의	-10.0428
▁걸리	-10.0429
센	-10.0436
▁기관	-10.0438
우스	-10.044
▁마찬가지	-10.0442
▁나만	-10.0444
룩	-10.0448
▁개의	-10.0451
▁인도	-10.0458
▁m	-10.0458
▁내부	-10.0461
▁비록	-10.0465
▁사유	-10.0467
▁손해	-10.0469
▁차이가	-10.047
▁둘이	-10.0473
점을	-10.0474
꾼	-10.0474
▁담배	-10.0477
▁지켜	-10.0479
보험	-10.0481
▁있으니	-10.0484
정말	-10.0487
사장	-10.0491
위원회	-10.0491
?!	-10.0495
옵니다	-10.0495
▁것이고	-10.0496
▁치료를	-10.0499
▁오랜	-10.0499
▁종합	-10.0499
수는	-10.0509
▁한마디	-10.0509
▁가리	-10.0512
▁저희가	-10.0519
거같	-10.0521
같	-10.0522
▁부산	-10.0526
▁용서	-10.0527
▁신뢰	-10.0528
▁말로	-10.0534
▁응원	-10.054
먼	-10.054
▁친구들이	-10.0545
▁뭐라고	-10.0548
나서	-10.0548
▁사랑을	-10.0549
▁모르게	-10.0554
▁돌리	-10.0556
▁물어	-10.0557
불안해	-10.0557
▁통증	-10.0558
회의	-10.0561
정부	-10.0563
▁중심으로	-10.0566
▁뿐만	-10.0567
▁말하면	-10.0574
▁봐야	-10.058
자들은	-10.0583
▁수익	-10.0584
▁훈련	-10.0587
엘	-10.0597
▁가족들	-10.06
수술	-10.0604
▁떼	-10.0606
il	-10.0608
때마다	-10.0608
룡	-10.061
칭	-10.0616
근데	-10.0616
▁상징	-10.0621
▁넘어가	-10.0623
▁권리	-10.0623
▁중간	-10.0625
▁죽은	-10.0625
▁만날	-10.0627
과는	-10.0628
▁보상	-10.0629
놓은	-10.063
▁된다는	-10.0633
▁아름다운	-10.0635
이죠	-10.0635
▁손으로	-10.0637
▁괴롭	-10.0638
▁믿고	-10.0638
▁23	-10.0649
검사	-10.0653
▁기억이	-10.0654
▁나가는	-10.0656
▁22	-10.0659
▁받았다	-10.067
▁닫	-10.0671
뜨	-10.0672
▁모르겠다	-10.0678
▁마당	-10.068
▁건너	-10.0681
해진	-10.0687
▁위기	-10.0687
▁이곳	-10.0689
됩니다	-10.0694
▁연락이	-10.0707
BA	-10.0711
하죠	-10.0715
▁생겼	-10.0717
▁하루에	-10.0721
▁되기	-10.0729
▁감정을	-10.0729
▁존나	-10.0734
▁청년	-10.0735
▁하던	-10.0737
▁회사에서	-10.0739
▁깊이	-10.0742
)'	-10.0742
▁현장	-10.075
▁젖	-10.075
MOD	-10.0753
▁정보를	-10.0759
▁보이고	-10.0762
▁후보	-10.0763
▁사정	-10.077
～	-10.0772
▁찾는	-10.0772
▁계신	-10.0777
▁엉	-10.0777
▁사람과	-10.078
▁울고	-10.0785
▁시간에	-10.0787
▁행복한	-10.0788
K	-10.079
▁싫다	-10.0795
▁화를	-10.0796
인은	-10.0796
닝	-10.0798
아빠	-10.08
▁쉽지	-10.0801
▁퇴근	-10.0802
▁얻어	-10.0805
H	-10.0808
▁60	-10.0814
▁어릴	-10.0815
▁틀	-10.0817
▁조금만	-10.0817
▁불행	-10.0819
▁형사	-10.0819
*	-10.0821
▁시선	-10.0822
원을	-10.0823
▁방식	-10.0827
▁들려	-10.0828
▁많았	-10.083
▁듯이	-10.0834
▁봤	-10.0839
습니까	-10.0842
▁다니고	-10.0845
기관	-10.0849
▁평균	-10.0855
▁자세히	-10.0859
ᄋ	-10.0868
▁없으면	-10.0871
온다	-10.0871
껏	-10.0872
진짜	-10.0872
해지고	-10.0872
▁상처를	-10.0876
▁개인회생	-10.0877
▁죽고	-10.0883
떡	-10.0888
▁경우도	-10.0891
을때	-10.0898
뒤	-10.0898
렬	-10.0899
▁싸우	-10.0909
▁제기	-10.0912
▁바꿔	-10.0912
▁우주	-10.0918
병원	-10.0918
킹	-10.0922
끈	-10.0927
▁처음에는	-10.0928
장은	-10.0929
되어야	-10.0932
▁옷을	-10.0934
묘	-10.0938
▁인한	-10.094
▁여인	-10.0955
▁세상을	-10.0955
▁그려	-10.0956
▁정확히	-10.0959
▁아니라고	-10.0959
▁어떻	-10.096
▁말한	-10.0964
▁누구나	-10.0968
▁들면	-10.0971
ri	-10.0973
▁살펴보	-10.0975
▁기회	-10.0978
▁캐	-10.0986
화가	-10.0993
▁충격	-10.0995
스가	-10.0997
▁모아	-10.0998
너무	-10.1
정을	-10.1002
▁이래	-10.1002
▁않았습니다	-10.1007
사람이	-10.1013
▁연기	-10.1023
기업	-10.1026
무슨	-10.1029
』,	-10.1029
젠	-10.1037
▁아내	-10.1037
일까요	-10.1043
마저	-10.105
▁특별한	-10.1051
▁남들	-10.1053
▁잃	-10.1056
드라	-10.1057
▁염	-10.1059
냈	-10.1066
▁장애	-10.1068
▁효과가	-10.1069
▁고향	-10.1072
▁슬	-10.1078
▁기계	-10.1083
▁영업	-10.1083
▁이루	-10.1086
▁어머님	-10.1087
▁a	-10.1088
다보니	-10.1088
▁예전에	-10.1088
▁거짓말	-10.1089
스를	-10.1093
▁적은	-10.1094
▁인간이	-10.1096
언니	-10.1097
▁공개	-10.1098
▁생활을	-10.1103
▁받아들이	-10.1106
▁나이가	-10.1107
▁첨	-10.1109
▁뿐이다	-10.1114
로는	-10.1116
▁개혁	-10.1118
▁얼굴로	-10.112
자와	-10.1123
정책	-10.1124
▁있구요	-10.1124
놨	-10.1128
▁상태에서	-10.1128
씨가	-10.1132
ra	-10.1133
▁편이	-10.1135
▁쳐다보	-10.1139
▁c	-10.114
▁반응	-10.1146
▁돌아오	-10.1155
▁금융	-10.1158
지역	-10.1158
▁어머니는	-10.116
▁건설	-10.1163
▁말씀을	-10.1163
▁실업급여	-10.1166
▁많아서	-10.1168
▁저와	-10.1175
▁연습	-10.1176
▁공장	-10.1177
▁그렇습니다	-10.1178
원의	-10.1178
▁갖	-10.1181
▁***	-10.1183
▁버리	-10.1186
▁않아도	-10.1186
▁자랑	-10.1192
▁확실히	-10.12
▁밖	-10.1202
▁세금	-10.1205
▁정신과	-10.1206
▁그러자	-10.1218
▁보도	-10.1218
▁의도	-10.1219
시대	-10.1224
스트레스	-10.1224
게요	-10.123
성에	-10.1231
거예요	-10.1232
▁수용	-10.1234
▁실험	-10.1238
▁생각할	-10.1238
지않	-10.1239
▁혁명	-10.1239
▁일이다	-10.124
▁ᄒ	-10.124
속상해	-10.1241
▁크기	-10.1242
▁궁금한	-10.1243
부가	-10.1244
▁있으니까	-10.1247
▁보았다	-10.1248
이기도	-10.1249
▁추진	-10.1255
하셨	-10.126
▁무엇인가	-10.1267
U	-10.127
▁뽑	-10.1276
됐다	-10.1278
▁도와주	-10.1279
▁좋았	-10.1281
에겐	-10.1281
▁알지	-10.1281
▁듣는	-10.1286
▁감독	-10.1293
럼	-10.1294
▁보장	-10.1295
▁물을	-10.1295
...(	-10.1296
th	-10.1297
▁설치	-10.1297
거지	-10.1305
▁싸움	-10.1306
끼리	-10.131
▁확보	-10.1311
▁잊	-10.1312
▁주위	-10.1312
▁의무	-10.1313
▁넓	-10.1313
지지	-10.1317
▁사망	-10.1318
▁얘	-10.1319
▁끌어	-10.132
▁엄청난	-10.1321
▁여자친구	-10.1322
▁읽어	-10.1323
학생	-10.1329
비가	-10.1336
▁관심이	-10.1337
▁러시아	-10.1338
▁걸까요	-10.1343
▁물질	-10.1347
▁논리	-10.1364
▁세력	-10.1365
▁수학	-10.1368
▁털	-10.1372
▁개선	-10.1375
▁낳	-10.1379
▁묵	-10.1379
sp	-10.138
▁교정	-10.1383
천만	-10.1388
시키	-10.1389
▁느	-10.1393
스의	-10.1396
상담	-10.1401
▁던	-10.1404
▁내용이	-10.1405
▁등록	-10.1407
▁요리	-10.1409
▁시작한	-10.141
▁하나는	-10.1419
▁최대한	-10.142
▁혼자서	-10.1422
▁시스템	-10.1424
헤	-10.1426
달라	-10.1427
▁축	-10.1429
▁멍	-10.1431
▁학습	-10.1436
▁스트레스를	-10.1437
▁너가	-10.1441
▁나와서	-10.1443
▁값	-10.1443
▁소유	-10.1447
있어	-10.145
▁평소에	-10.1452
▁ᄋᄋ	-10.1456
▁든	-10.1457
▁아파	-10.1459
벅	-10.1459
으려	-10.1462
▁위자료	-10.1463
달라고	-10.1463
자마자	-10.1465
▁꼴	-10.1467
줬	-10.1471
객	-10.1474
거리며	-10.148
▁났	-10.1484
▁예정	-10.1484
▁모르겠지만	-10.1486
슬퍼	-10.1486
▁하더라구요	-10.1491
▁관계가	-10.1493
▁J	-10.1496
여사	-10.1497
▁운동을	-10.1499
▁기도	-10.1499
▁저렇게	-10.1507
주가	-10.1507
▁전국	-10.1511
▁살아야	-10.1516
▁자네	-10.152
▁먹었	-10.1521
▁주시	-10.153
에선	-10.1535
맨	-10.1538
▁썼	-10.154
▁짐	-10.154
V	-10.1544
▁친구는	-10.1548
다른	-10.155
성은	-10.1551
▁걍	-10.1552
▁체계	-10.1555
였어요	-10.1555
=	-10.1557
▁그러는	-10.1558
▁남편은	-10.1559
▁했어	-10.1564
▁주택	-10.1565
▁ᄏᄏᄏᄏᄏᄏᄏᄏ	-10.1566
앙	-10.1569
음을	-10.1576
▁끝까지	-10.1578
AL	-10.1579
▁어렵	-10.1581
▁추가	-10.1584
▁이전	-10.1585
하러	-10.1586
▁했을	-10.1597
▁TV	-10.1602
▁남겨	-10.1604
▁예전	-10.1608
▁짜증	-10.1609
▁댓글	-10.1611
▁딴	-10.1617
▁전자	-10.1617
▁잘못된	-10.1622
▁규모	-10.1623
이었습니다	-10.1625
댁	-10.1628
▁d	-10.1631
▁출신	-10.1632
▁어렵다	-10.1638
▁적어도	-10.1638
▁주인공	-10.1642
v	-10.1643
z	-10.1644
버리고	-10.1648
랜	-10.165
法	-10.165
▁빠른	-10.1652
▁영상	-10.1652
입니까	-10.1654
▁혹	-10.1657
벨	-10.166
사랑	-10.1664
▁흔들	-10.1665
▁근육	-10.1666
▁끝에	-10.1667
▁도저히	-10.1667
▁안돼	-10.1667
비용	-10.167
▁동의	-10.1672
▁생각하면	-10.1678
▁애들이	-10.1678
▁틈	-10.1686
▁가자	-10.1688
▁상황에	-10.169
▁마세요	-10.1691
으신	-10.1692
▁기독교	-10.1692
▁주의	-10.1698
15	-10.1701
▁이미지	-10.1705
▁전환	-10.1706
▁좀더	-10.1708
장에	-10.1713
촌	-10.1717
▁중요하다	-10.1723
ᄏᄏᄏᄏᄏ	-10.1727
랄	-10.1728
할까	-10.1729
▁흔히	-10.1745
었을	-10.1747
▁피가	-10.1747
▁하였습니다	-10.1748
당신	-10.1754
방송	-10.1754
▁카페	-10.1756
▁신체	-10.1769
▁나왔다	-10.1772
치료	-10.1774
그래서	-10.1776
있어요	-10.1779
맹	-10.178
▁일정	-10.1781
▁생각한다	-10.1782
칼	-10.1786
▁맛있	-10.1786
엽	-10.1793
힘	-10.1796
르고	-10.18
셨다	-10.18
▁실시	-10.1804
▁이후에	-10.1804
11	-10.1811
▁검찰	-10.1818
▁명령	-10.1819
▁이성	-10.1829
19	-10.1831
▁단체	-10.1836
▁싶고	-10.1836
▁부여	-10.1839
대학	-10.184
▁상대방	-10.1845
ᄉ	-10.1847
▁보여주	-10.1853
▁그런지	-10.186
▁차를	-10.1861
짜	-10.1861
,,,	-10.1863
▁인기	-10.1864
▁생일	-10.1867
시죠	-10.1868
슈	-10.1869
us	-10.187
▁적어	-10.1873
▁받아서	-10.188
w	-10.1887
▁범죄	-10.1887
▁2000	-10.189
첩	-10.1893
▁하나가	-10.1896
▁빨	-10.1899
▁분노	-10.1904
▁자극	-10.191
▁살기	-10.1911
▁기다리고	-10.1911
해주는	-10.1912
치가	-10.1919
▁냄새	-10.1922
사이	-10.1922
▁의견	-10.1922
▁거절	-10.1923
불안	-10.1925
▁알아서	-10.1926
▁대응	-10.1936
▁되었고	-10.1941
이라서	-10.1941
부를	-10.1942
▁처음으로	-10.1943
셨습니다	-10.1944
할때	-10.1948
▁그러다가	-10.1948
30	-10.1951
▁남의	-10.1951
▁본질	-10.1952
▁있음	-10.1955
▁대화를	-10.1958
버렸	-10.1962
▁종이	-10.1963
▁웃으며	-10.1967
났다	-10.197
까지는	-10.197
▁선수	-10.1971
IC	-10.1973
▁최근에	-10.1982
▁새끼	-10.1985
0009	-10.1988
▁뻔	-10.1989
꽃	-10.1991
▁형태	-10.1994
▁양육비	-10.1994
▁선생님이	-10.2004
잠	-10.2011
▁입술	-10.2015
▁28	-10.2015
▁바랍니다	-10.202
일까	-10.2022
폰	-10.2022
▁조용히	-10.2029
혼란스러워	-10.203
大	-10.2031
으세요	-10.2033
▁커다란	-10.2033
▁처방	-10.2036
은행	-10.2042
te	-10.2056
▁그렇다	-10.2056
▁들어와	-10.2062
▁불과	-10.2065
▁괜찮은	-10.2067
▁이해가	-10.2067
릿	-10.2069
▁세워	-10.2072
▁시원	-10.2072
se	-10.2077
▁사항	-10.2082
▁무릎	-10.2084
▁편지	-10.2086
▁표정으로	-10.2088
▁분들이	-10.2088
▁집이	-10.2089
▁이마	-10.2092
웠다	-10.2093
▁퇴	-10.2097
▁운명	-10.2099
▁금액	-10.2101
▁웃고	-10.2103
▁주변에	-10.2105
▁&	-10.2111
중이	-10.2112
▁보아	-10.2112
▁느끼는	-10.2113
20	-10.2113
말이	-10.2114
세계	-10.2117
▁대부분의	-10.2117
▁각각	-10.2122
▁국회	-10.2127
하는게	-10.2133
▁속이	-10.2137
봅니다	-10.2139
▁할까	-10.2147
▁발달	-10.2149
>"	-10.2152
하시고	-10.2155
▁교사	-10.2163
▁바르	-10.2167
▁검색	-10.2169
▁아프고	-10.217
▁자는	-10.2173
▁끝내	-10.2176
대의	-10.2182
▁밑	-10.2186
수의	-10.2188
▁모두가	-10.2192
그리고	-10.2196
▁도와	-10.2197
센터	-10.2203
이었던	-10.221
▁만일	-10.2211
어머니	-10.2214
▁나간다	-10.2215
거라고	-10.2216
▁쓰레기	-10.2217
▁범	-10.2217
▁선배	-10.2219
▁측	-10.222
▁이처럼	-10.2222
▁미소	-10.2223
▁힘들게	-10.2223
▁책상	-10.2227
행위	-10.2228
▁들어오는	-10.2229
▁만들고	-10.2239
장에서	-10.2241
정이	-10.2246
난다	-10.2247
▁특성	-10.2249
▁점이	-10.2249
▁결과를	-10.2252
▁그에게	-10.2253
해지는	-10.2253
▁믿음	-10.2254
▁좋아요	-10.2259
어도	-10.226
▁있음을	-10.2262
▁사기	-10.2264
▁이상의	-10.227
***	-10.227
분들	-10.2273
▁완성	-10.2277
▁아버님	-10.2282
좋아	-10.2283
▁유명한	-10.2285
선을	-10.2291
▁각종	-10.2292
▁병원을	-10.2293
▁돌아보	-10.2293
전을	-10.2294
▁들어온다	-10.2294
▁사실이	-10.2295
하기로	-10.2298
▁화이팅	-10.23
것같아요	-10.23
▁씨가	-10.2303
으로는	-10.2306
▁모르겠습니다	-10.2311
▁탐	-10.2313
있는데	-10.2313
▁드라마	-10.2318
▁나갈	-10.2324
옷	-10.2324
之	-10.2326
▁챙겨	-10.2326
▁아이들이	-10.2328
이트	-10.2329
▁과제	-10.2331
▁찾아보	-10.2331
▁있었어요	-10.2332
13	-10.2333
▁낫	-10.2338
▁살이	-10.2343
붙	-10.2345
▁삐	-10.2348
▁설정	-10.2351
봤	-10.2355
▁영향	-10.2357
▁혈	-10.2363
▁초기	-10.2366
▁칭찬	-10.2366
졸	-10.2368
▁그들	-10.2369
▁아니냐	-10.237
▁확신	-10.2372
엉	-10.2373
활동	-10.2374
▁생각했다	-10.2376
▁질문을	-10.2384
▁끊어	-10.2385
▁당황	-10.2385
놀	-10.2385
▁체제	-10.239
▁있다가	-10.2391
▁배가	-10.2391
▁주목	-10.2396
▁200	-10.2396
▁제한	-10.2401
▁홀	-10.2405
▁감정이	-10.2407
▁호텔	-10.241
ter	-10.2411
▁없애	-10.2412
▁걸려	-10.2414
▁뿐이	-10.2416
▁능	-10.2423
▁띄	-10.2424
▁하시는	-10.2424
늘	-10.2425
▁보낸	-10.2426
▁견	-10.2427
했으며	-10.2432
는걸	-10.2434
▁사장님	-10.2435
▁힘들었	-10.2438
무기력해	-10.2439
am	-10.244
BO	-10.2444
▁묘	-10.2444
▁따르면	-10.2446
▁식사	-10.2449
받는	-10.2455
▁가려	-10.2457
▁b	-10.2459
▁통제	-10.2463
▁빌려	-10.2472
으셨	-10.2475
▁요새	-10.2478
▁아빠는	-10.248
▁자라	-10.2482
▁몽	-10.2483
▁기타	-10.2483
▁도로	-10.2484
▁생각하지	-10.2491
▁회사에	-10.2492
▁예예	-10.2493
▁모여	-10.2494
▁짜증나	-10.2495
▁정확한	-10.2497
▁실현	-10.2499
▁브랜드	-10.2501
오빠	-10.2502
▁다녔	-10.2503
▁닦	-10.2505
▁늘어	-10.2509
▁찍어	-10.251
▁공포	-10.2524
봐요	-10.2524
럽	-10.2527
읍니다	-10.2528
부장	-10.2532
▁흑	-10.2534
▁알려주	-10.2534
▁생각하	-10.2536
몰	-10.2536
▁들어요	-10.2542
▁소중한	-10.2543
▁사라지	-10.2544
리에	-10.2545
을까요	-10.2545
▁밝혀	-10.2546
핑	-10.2561
▁주었다	-10.2562
▁일하는	-10.2564
와의	-10.2574
▁심각한	-10.258
▁27	-10.2581
▁소식	-10.2585
▁거울	-10.2589
학적	-10.259
▁오면	-10.259
▁있어도	-10.2592
▁마카님이	-10.2592
▁플	-10.2595
SH	-10.2596
▁자리에서	-10.2597
▁없지	-10.2599
▁외부	-10.2611
▁낮은	-10.2614
▁각자	-10.2621
▁제목	-10.2621
▁좋을까요	-10.2626
▁않습니까	-10.2628
▁상호	-10.2629
어져	-10.263
▁살려	-10.2631
▁하는데요	-10.2632
▁주기	-10.2643
주면	-10.2643
▁타인	-10.2644
▁자신에게	-10.2645
???	-10.265
▁열고	-10.2654
▁징	-10.2659
▁면접	-10.2661
세가	-10.2663
▁마찬가지로	-10.2666
▁맹	-10.2668
찍	-10.2675
▁만나는	-10.2676
믄	-10.2678
▁남북	-10.2679
냈다	-10.268
▁그리스도	-10.2686
홀	-10.2686
일을	-10.269
논	-10.2697
해질	-10.2697
▁내고	-10.2698
▁안내	-10.2698
▁이름이	-10.2702
▁독자	-10.2703
털	-10.2704
▁대충	-10.2707
▁푹	-10.2708
▁친구를	-10.271
▁덮	-10.2715
▁무엇	-10.2718
이요	-10.2718
▁배경	-10.2719
▁상승	-10.2722
▁심리	-10.2725
▁공연	-10.2729
▁특정	-10.2729
1:	-10.2738
▁마지막으로	-10.2743
▁모델	-10.2748
▁26	-10.2754
시킨	-10.2757
▁70	-10.2758
둬	-10.2759
▁식당	-10.2761
▁클	-10.2761
▁않지만	-10.2766
▁이것을	-10.2766
하네	-10.2771
▁익	-10.2773
하고자	-10.2776
▁고백	-10.2776
켜	-10.2778
▁택시	-10.2779
▁결론	-10.2781
▁됐다	-10.2781
▁자본	-10.2783
▁인상	-10.2796
▁오랫동안	-10.2797
▁몰아	-10.28
▁벌어	-10.2801
▁과정을	-10.2802
는것도	-10.2802
▁습관	-10.2802
▁달러	-10.2802
리스	-10.2804
▁ᅲᅲᅲ	-10.2811
▁느껴	-10.2811
▁정말로	-10.2813
▁바쁘	-10.2816
▁옮겨	-10.2819
▁적응	-10.2821
▁통장	-10.2825
▁흥	-10.2832
자에게	-10.2834
▁기회를	-10.2838
019	-10.284
▁요즘은	-10.2842
▁따뜻한	-10.2843
▁말라	-10.2847
▁쏟아	-10.2849
▁그나마	-10.285
구조	-10.2853
해주세요	-10.2854
간에	-10.2855
國	-10.2862
솔	-10.2862
▁학문	-10.2863
▁이익	-10.2866
▁헛	-10.2866
▁진정한	-10.2866
▁V	-10.2872
▁있나	-10.2874
▁아이는	-10.2879
▁문득	-10.288
스럽	-10.2887
걱정돼	-10.2887
정신	-10.2889
▁나고	-10.289
▁표시	-10.2892
▁친정	-10.2893
▁워	-10.2908
스런	-10.291
▁들어가는	-10.291
▁시술	-10.2917
▁그만두	-10.2918
▁만나서	-10.292
▁보냈	-10.2921
▁서서	-10.2921
▁나눠	-10.2922
▁봅니다	-10.2924
▁근로	-10.2924
▁나랑	-10.2925
▁예수	-10.2932
▁판결	-10.2932
▁오고	-10.2934
▁명이	-10.2938
▁느낄	-10.2939
심을	-10.294
▁신랑	-10.2943
하였고	-10.2943
▁추억	-10.2949
▁보수	-10.296
법을	-10.2961
▁건축	-10.2961
▁어려워	-10.2962
상이	-10.2964
▁경계	-10.2964
▁들은	-10.2969
▁감각	-10.2972
하였습니다	-10.2976
▁눈으로	-10.2978
▁가시	-10.2978
▁(/	-10.2983
▁숲	-10.2985
▁따르	-10.2993
▁하더군요	-10.2998
▁다가가	-10.2999
스타	-10.2999
▁펴	-10.3009
▁뭔지	-10.3012
▁지키	-10.3017
▁결심	-10.3018
▁남친	-10.3019
▁안으로	-10.3024
▁친한	-10.3027
▁흉터	-10.3034
▁요인	-10.3034
▁온다	-10.3035
▁계약서	-10.3042
톤	-10.3044
▁없었던	-10.305
▁도망	-10.305
▁회장	-10.3051
▁소비	-10.3056
▁유형	-10.3067
▁박사	-10.3069
date	-10.3075
점이	-10.3079
▁받게	-10.3087
정보	-10.3087
▁인지	-10.3088
▁방법으로	-10.3089
▁말았다	-10.309
하는거	-10.3091
▁마침내	-10.3091
ro	-10.3092
▁털어놓	-10.3093
▁전개	-10.3095
▁지켜보	-10.3095
▁협의	-10.3096
식으로	-10.3098
▁원인	-10.31
▁수사	-10.3103
▁안좋	-10.3103
▁맡	-10.3105
▁닿	-10.3108
▁차이	-10.3109
▁단순히	-10.3111
▁겁	-10.3112
었지만	-10.3118
▁오지	-10.3118
▁짧은	-10.312
▁하죠	-10.3122
ent	-10.3124
▁형님	-10.3127
하여야	-10.3127
들로	-10.3127
▁이들은	-10.3128
납	-10.3133
▁지식인	-10.3135
▁흉	-10.3138
빙	-10.3138
▁아마도	-10.3139
▁것들	-10.314
▁문장	-10.3142
말을	-10.3144
▁그렇고	-10.3144
▁경찰서	-10.3145
▁빠지	-10.3145
싶	-10.3148
▁끝나고	-10.3151
▁괴	-10.3152
른다	-10.3155
▁기다려	-10.3157
▁급여	-10.3168
▁통합	-10.3168
▁좋고	-10.3169
__	-10.317
▁엄마한테	-10.3173
트를	-10.3178
활	-10.318
▁있잖아요	-10.3186
▁두려움	-10.3187
▁증명	-10.3194
▁미안해	-10.3196
▁처음부터	-10.32
▁정답	-10.3201
▁대비	-10.3203
특	-10.3205
▁정도는	-10.3206
▁고마워요	-10.3209
▁외모	-10.3212
▁반면	-10.3213
▁나누	-10.3215
질을	-10.322
▁때에는	-10.322
버릴	-10.3223
▁소년	-10.3223
쩍	-10.3225
▁자금	-10.3226
▁폭행	-10.323
▁없었습니다	-10.323
해져	-10.3231
▁것보다	-10.3234
▁미치	-10.3236
▁방향	-10.324
▁저만	-10.3242
으러	-10.3242
▁맞추	-10.3243
▁주말	-10.3244
선생	-10.3245
▁거는	-10.3247
거래	-10.3248
▁달아	-10.3248
▁동생이	-10.3249
▁보시	-10.3254
▁우울해	-10.3254
거같아요	-10.3255
▁법원	-10.3257
▁매력	-10.3258
▁승리	-10.3258
수있	-10.3259
▁계속해서	-10.3263
▁웃는	-10.3265
▁워낙	-10.3269
▁영혼	-10.3269
▁움직이	-10.3271
▁반영	-10.3277
▁짝	-10.328
▁흠	-10.3281
화된	-10.3282
에게서	-10.3283
▁막상	-10.3284
지게	-10.3289
위에	-10.3301
받아	-10.3302
▁태어나	-10.3303
상으로	-10.3304
▁헤어지	-10.331
▁의료	-10.331
▁직장을	-10.3313
라이	-10.3317
▁믿어	-10.3321
턴	-10.3323
▁몰래	-10.3327
▁부분을	-10.3331
넘	-10.3335
▁결혼을	-10.3337
▁상태입니다	-10.3338
▁위에서	-10.3339
부의	-10.3347
∼	-10.3347
▁진정	-10.3351
▁하세요	-10.3355
사에	-10.3355
▁떨어지	-10.336
▁정권	-10.3361
▁가기	-10.3362
지면	-10.3364
▁바라보	-10.3369
▁신용	-10.3369
몽	-10.3372
조선	-10.3373
▁쉬운	-10.3374
▁드러내	-10.3379
un	-10.338
한국	-10.3383
에서의	-10.3383
할머니	-10.3387
랐	-10.3392
▁인류	-10.3393
▁희생	-10.34
자나	-10.3402
받은	-10.3402
▁실망	-10.3403
▁방안	-10.3403
▁마음으로	-10.3405
드려	-10.3406
▁비난	-10.3414
봤는데	-10.3417
▁집어	-10.3418
▁무대	-10.3421
▁그런거	-10.3423
▁욕심	-10.3424
▁산재	-10.3424
▁내면	-10.3428
그냥	-10.3428
▁재미	-10.3432
▁듭니다	-10.3432
립니다	-10.3432
▁됬	-10.3435
▁고용	-10.3438
▁못하게	-10.3439
인들이	-10.3442
개의	-10.3444
보단	-10.3448
▁마음의	-10.3449
▁사이의	-10.3451
▁아니었	-10.3451
▁관찰	-10.3453
▁그녀를	-10.3453
ad	-10.3456
▁있을지	-10.3456
▁무료	-10.3457
▁축하	-10.3461
흐	-10.3462
▁달라고	-10.3465
▁어둠	-10.3465
스러워	-10.3466
킬	-10.347
▁위협	-10.347
▁빵	-10.3473
▁성형	-10.3474
▁살아가	-10.3476
▁흐름	-10.3476
했기	-10.3477
십시오	-10.3478
▁없을까요	-10.3479
▁핵	-10.3479
▁협박	-10.3485
▁더불어	-10.3487
▁쥐	-10.3488
▁밀어	-10.3488
▁공급	-10.349
큰	-10.3491
▁시행	-10.3491
▁제안	-10.3504
낭	-10.3518
집에	-10.3519
▁우리에게	-10.3523
~!	-10.3524
소를	-10.3525
▁찾아가	-10.3532
▁세대	-10.3533
▁있었지만	-10.3536
▁맥	-10.3537
▁않기	-10.354
▁힘들어서	-10.3541
▁지혜	-10.3541
▁잘하는	-10.3542
▁이틀	-10.3544
▁최대	-10.3546
▁만약에	-10.3547
▁좋게	-10.3547
잉	-10.3549
▁맞고	-10.355
▁뚫	-10.3552
▁될지	-10.3552
롭게	-10.3554
▁손님	-10.3558
▁시인	-10.3558
▁춘	-10.3558
낸다	-10.356
랬	-10.3564
▁아줌마	-10.3569
▁봐도	-10.3575
▁것이며	-10.3576
님께서	-10.3577
▁미술	-10.3578
,</	-10.3579
▁한번도	-10.3582
깃	-10.3584
▁바람에	-10.3584
▁지닌	-10.3585
▁이르	-10.3585
▁어디에	-10.3588
▁청소	-10.3589
십니다	-10.3591
▁빠	-10.3593
거죠	-10.3594
▁이후로	-10.3597
▁땀	-10.361
▁오해	-10.3611
옴	-10.3611
워서	-10.3611
▁문제로	-10.3614
▁많아요	-10.3614
나고	-10.3614
▁최고의	-10.3614
▁심장	-10.3615
▁부분에	-10.3616
▁억지로	-10.3617
▁케	-10.3618
▁한명	-10.3618
▁대리	-10.3621
▁왔습니다	-10.3622
▁무척	-10.363
▁걸린	-10.3631
▁들었습니다	-10.3631
▁정신이	-10.3632
구만	-10.3633
▁허락	-10.3634
▁ᄏᄏᄏᄏᄏᄏᄏᄏᄏ	-10.3635
겁니다	-10.3637
굴	-10.3639
▁성립	-10.3639
▁전세	-10.3639
▁바닥	-10.3641
▁버리고	-10.3646
대에	-10.3653
▁닭	-10.3658
약을	-10.3658
▁쫌	-10.3659
▁애가	-10.3667
오고	-10.3667
▁힘내	-10.3667
▁동기	-10.3668
▁가방	-10.3668
▁똑같이	-10.3674
▁그래야	-10.3677
▁상속	-10.3681
▁의미가	-10.3682
▁이유를	-10.3684
주를	-10.3685
르는	-10.3687
▁보았	-10.3689
ᅲᅲᅲ	-10.3689
씨는	-10.3689
▁소송을	-10.3697
▁무렵	-10.3698
▁만나고	-10.3701
심이	-10.3704
▁직원들	-10.3705
▁벗	-10.3713
한거	-10.3716
인다	-10.372
▁욕망	-10.3721
자들	-10.373
ᄀ	-10.373
▁똑같	-10.3738
받을	-10.3751
▁업체	-10.3754
▁뭔	-10.3758
▁곁에	-10.3762
▁같네요	-10.3765
▁아버지의	-10.3766
학과	-10.3766
▁쿠	-10.3766
▁어렸을	-10.3768
▁그분	-10.3771
나오	-10.3772
씬	-10.3773
다리	-10.3773
▁대처	-10.3773
▁500	-10.3776
▁사람들과	-10.3777
▁알리	-10.3779
▁된다면	-10.378
▁지나가	-10.3783
▁시키	-10.3784
틴	-10.3784
▁봐요	-10.3785
▁성인	-10.3785
190	-10.3786
▁여유	-10.3786
▁여자는	-10.3788
보자	-10.3793
보내	-10.3795
▁있는가	-10.3797
국가	-10.38
▁용기	-10.3801
▁죽는	-10.3804
우는	-10.3805
보세요	-10.3808
▁고민을	-10.381
▁한국의	-10.3817
▁의해서	-10.3817
닌	-10.3819
▁문제에	-10.3822
▁모를	-10.3823
▁진료	-10.3824
▁속도	-10.3824
▁보게	-10.3826
이니까	-10.3832
▁배려	-10.3833
▁나름	-10.3835
▁너도	-10.3835
▁제외	-10.3841
▁부자	-10.3847
▁햇	-10.3848
때도	-10.3851
▁꾸준히	-10.3852
▁불만	-10.3852
▁사건이	-10.3852
J	-10.3854
▁밥을	-10.3856
&	-10.3856
▁넣고	-10.3856
JKC	-10.3857
j	-10.3857
▁싫고	-10.3863
군의	-10.3867
▁에너지	-10.3867
가족	-10.3867
▁유명	-10.3868
▁토지	-10.3871
▁나쁘	-10.3872
▁이리	-10.3872
16	-10.3877
▁앉아서	-10.3877
버렸다	-10.3878
▁진심으로	-10.3882
▁옳	-10.3884
ow	-10.3889
▁눈빛	-10.389
그렇	-10.3893
▁취소	-10.3894
▁날아	-10.3894
▁파괴	-10.3895
▁모르겠	-10.3898
▁일부러	-10.39
▁구입	-10.3902
▁갖다	-10.3905
▁29	-10.3906
▁지어	-10.391
이런	-10.3912
았는데	-10.3913
가며	-10.3914
▁키우	-10.3915
▁만에	-10.3915
▁의하여	-10.3916
▁인연	-10.3918
▁해방	-10.3926
cm	-10.3933
렴	-10.3933
▁●	-10.3933
겼	-10.3934
▁능력을	-10.3936
▁지나면	-10.3937
▁빼고	-10.3942
▁등으로	-10.3944
▁읽고	-10.3944
▁검은	-10.3947
▁찾을	-10.3952
▁나가서	-10.3952
▁종류	-10.3955
▁촬영	-10.3956
▁온갖	-10.3961
릭	-10.3963
넣	-10.3965
▁지시	-10.3965
?”	-10.3965
▁깔	-10.3966
않	-10.3966
▁다르다	-10.3967
▁생길	-10.3967
산업	-10.3967
▁보일	-10.3973
이제	-10.3973
때는	-10.3973
▁사연	-10.398
▁든다	-10.3982
만은	-10.3989
▁얘기가	-10.3993
해줄	-10.3993
▁특별	-10.3994
▁능력이	-10.3995
▁없게	-10.3997
개발	-10.3999
능력	-10.4001
▁노력을	-10.4007
~~~	-10.4013
▁다행이	-10.4016
▁특수	-10.4017
▁많은데	-10.4019
▁기획	-10.402
▁지속	-10.4028
▁강의	-10.4028
이구요	-10.403
랭	-10.4031
조사	-10.4031
▁있거든요	-10.4039
▁죽고싶	-10.4039
▁없어지	-10.4039
▁것들을	-10.4041
으므로	-10.4042
▁곤	-10.4042
▁받기	-10.4043
두고	-10.4044
▁우린	-10.4045
▁끈	-10.4046
▁느껴지	-10.4049
▁생활비	-10.4051
하였	-10.4052
속에	-10.4052
로서의	-10.4054
▁이번에는	-10.4055
▁측면	-10.4056
▁감사해요	-10.4057
▁감기	-10.4061
▁살았	-10.4063
▁소비자	-10.4063
할까요	-10.4067
▁로마	-10.4068
▁통한	-10.4068
면서도	-10.4068
▁도입	-10.4069
▁자연스럽게	-10.4069
딱	-10.407
▁생겨	-10.4072
+,	-10.4073
▁사진을	-10.4075
ᄅ	-10.4082
한지	-10.4085
▁공사	-10.4086
▁화면	-10.4089
500	-10.409
하면서도	-10.4099
▁들리	-10.4101
▁옛	-10.4107
▁원리	-10.4107
▁폰	-10.4107
▁했더니	-10.4114
짜증나	-10.4114
▁하나님의	-10.4117
▁임대	-10.412
▁누워	-10.4123
▁들어보	-10.4123
▁고개	-10.4124
▁했다고	-10.4129
▁어떠	-10.413
▁스포츠	-10.4131
▁현금	-10.4134
▁납	-10.4135
▁덕분에	-10.414
▁장사	-10.414
不	-10.4146
까지도	-10.4146
▁전투	-10.4147
▁절차	-10.4149
▁밝히	-10.4155
tr	-10.4155
▁이해할	-10.4158
W	-10.4158
▁숨을	-10.4159
▁종종	-10.4159
▁전해	-10.4164
▁쭉	-10.4164
▁아무튼	-10.4168
만으로	-10.4172
깨	-10.4173
▁끌고	-10.4173
왓	-10.4174
▁익숙	-10.4179
▁실력	-10.4179
▁마음은	-10.4183
▁양육권	-10.4186
겠네요	-10.4186
▁채무	-10.4188
지원	-10.4188
▁주사	-10.4193
증이	-10.4193
지기	-10.4196
관이	-10.4196
님은	-10.4197
▁밖에서	-10.4197
▁구경	-10.4199
▁설득	-10.42
자신	-10.42
▁화장	-10.4203
▁들이	-10.4203
쟁이	-10.4212
로써	-10.4215
▁쓰지	-10.4215
밭	-10.4217
자인	-10.4219
계획	-10.4225
▁옆에서	-10.4225
전화	-10.4226
▁쇠	-10.4227
자들의	-10.423
나봐요	-10.4238
▁31	-10.4239
이자	-10.424
됨	-10.424
정치	-10.4243
▁녀석	-10.4245
아야	-10.4247
지에	-10.4247
▁아픔	-10.4255
시켰다	-10.4256
▁이상이	-10.4259
▁헌	-10.4261
ᅡ	-10.4262
▁음식을	-10.4262
▁청소년	-10.4263
싱	-10.4264
▁싫어요	-10.427
▁욕구	-10.4272
▁경제적	-10.4276
▁붉은	-10.4279
▁심각	-10.4281
ᄃ	-10.4282
▁집착	-10.4285
라며	-10.4288
▁없기	-10.4288
▁깜짝	-10.4292
▁다이어트	-10.4296
하긴	-10.43
▁진심	-10.43
▁윗	-10.43
▁신앙	-10.4303
▁주문	-10.4309
셔야	-10.4309
▁했었	-10.431
▁버티	-10.4313
으려고	-10.4318
▁바보	-10.4318
21	-10.4318
▁사회의	-10.4319
▁오직	-10.432
▁황제	-10.432
▁고기	-10.4323
▁그다음에	-10.433
▁끝난	-10.4332
▁받는다	-10.4332
▁의존	-10.4332
▁신경쓰	-10.4334
▁깨끗	-10.4335
▁마카님의	-10.4345
낙	-10.4352
함에	-10.4353
▁인간관계	-10.4356
▁체험	-10.4357
보며	-10.4362
▁학교에	-10.4363
▁곳으로	-10.4363
▁가능성	-10.4365
▁내려가	-10.4366
▁펼쳐	-10.4367
st	-10.4373
▁자신감	-10.4375
었는지	-10.4377
▁하루하루	-10.4379
▁맞지	-10.438
장의	-10.4385
별로	-10.4387
▁같다고	-10.4387
▁멈추	-10.4389
쳐서	-10.4401
▁콜	-10.4401
▁처음에	-10.4403
아요	-10.4403
ul	-10.4404
▁시골	-10.4408
▁쌀	-10.4412
li	-10.4415
▁가보	-10.4416
먹어	-10.4421
▁치고	-10.4425
▁가족이	-10.4432
▁탁	-10.4436
▁역사적	-10.4436
▁슬프	-10.4437
▁느끼고	-10.444
걸까요	-10.444
▁매달	-10.4442
▁진단	-10.4442
놔	-10.4442
▁어른	-10.4443
▁당연한	-10.4447
져요	-10.4449
▁양쪽	-10.445
국의	-10.4451
년을	-10.4451
▁시켜	-10.4452
▁않았고	-10.4452
겠습니까	-10.4452
삭	-10.4452
▁것이라는	-10.4453
100	-10.4458
▁그러지	-10.4459
▁견해	-10.4463
▁근처	-10.4463
뿐이	-10.4464
았던	-10.4466
▁일로	-10.4471
▁입장에서	-10.4473
▁변경	-10.4473
▁결과가	-10.4483
겁	-10.4489
영이	-10.449
▁무기력	-10.4491
▁통하여	-10.4492
▁이것도	-10.4495
▁당연	-10.4495
▁무서운	-10.4496
▁살아가는	-10.4499
▁쌓	-10.4502
▁자해	-10.4503
▁차량	-10.4505
미터	-10.4505
▁액	-10.4507
▁결합	-10.4509
▁상태로	-10.4509
▁같기도	-10.4512
▁국민들	-10.4513
▁점차	-10.4514
이냐	-10.4515
(2	-10.4515
▁공공	-10.4518
▁단순	-10.4519
▁미안	-10.4521
▁다가	-10.4521
▁챙기	-10.4523
▁인구	-10.4524
▁에이	-10.4525
▁80	-10.4525
줘서	-10.4525
▁좋아하	-10.453
▁아들이	-10.4533
▁꿈이	-10.4536
와는	-10.4538
▁검토	-10.4538
▁틀림없	-10.4539
▁안된다	-10.454
▁일반적으로	-10.4541
▁썩	-10.4542
떠	-10.4544
▁아파서	-10.4551
▁공식	-10.4552
하듯	-10.4552
꿈	-10.4557
▁생각나	-10.4559
이었	-10.4559
▁정도가	-10.4563
쟁	-10.4564
는것	-10.4566
▁붙어	-10.4567
▁세상이	-10.4569
▁인터뷰	-10.457
겠네	-10.4573
▁끌	-10.4574
▁던지	-10.4576
▁전제	-10.4578
▁일으키	-10.4579
▁택	-10.4586
▁이기	-10.4586
▁그곳	-10.459
▁가요	-10.4592
선이	-10.4593
▁아닙니까	-10.4593
으라고	-10.4595
▁그치	-10.4596
▁주먹	-10.4596
▁밑에	-10.4597
▁놀이	-10.46
▁전기	-10.46
▁수능	-10.4601
026	-10.4602
슴	-10.4602
▁생기는	-10.4603
▁떨어진	-10.4604
짜리	-10.4604
▁진술	-10.4605
딸	-10.4606
▁인생을	-10.4608
걸까	-10.4613
▁넘게	-10.4622
▁대상으로	-10.4623
018	-10.4629
▁마무리	-10.4633
▁심정	-10.4634
▁고쳐	-10.4634
사진	-10.4635
author	-10.4635
부에	-10.4638
공허해	-10.4639
―	-10.4643
▁to	-10.4644
“	-10.4646
▁말씀드리	-10.4649
▁흥미	-10.4649
▁입사	-10.465
당한	-10.4651
▁그렇기	-10.4657
▁숫자	-10.4657
▁일본의	-10.4664
▁말이죠	-10.4665
해주고	-10.4666
▁서양	-10.4668
큐	-10.4673
▁안보	-10.4673
▁내밀	-10.4678
▁규칙	-10.4681
되는데	-10.4683
▁그룹	-10.4687
▁뜻을	-10.4689
▁끄	-10.4691
▁방금	-10.4693
회장	-10.4696
주지	-10.4697
▁몰려	-10.4699
▁w	-10.4701
▁움	-10.4704
▁말라고	-10.4706
▁와이프	-10.4709
량이	-10.471
▁저항	-10.4717
▁토론	-10.4717
외로워	-10.472
▁취미	-10.472
이었고	-10.472
▁언니가	-10.4723
▁f	-10.473
개를	-10.4734
▁범위	-10.4739
졌습니다	-10.4744
투자	-10.4745
계약	-10.4746
▁The	-10.4747
▁안좋아	-10.4751
사람들	-10.4751
▁쪼	-10.4752
▁갖는	-10.4757
▁크고	-10.4757
고싶어	-10.4759
았어요	-10.4762
신을	-10.4764
▁기존	-10.4765
뚱	-10.4766
▁모자	-10.4767
▁곳은	-10.477
com	-10.4772
▁이상하게	-10.4772
▁친구들과	-10.4774
▁마라	-10.4779
▁300	-10.478
▁씻	-10.4781
▁걸쳐	-10.4782
▁주도	-10.4783
im	-10.4784
▁인간은	-10.4787
▁빗	-10.479
단체	-10.4796
▁없나요	-10.4797
▁아서	-10.4797
무서워	-10.4798
▁교통	-10.4799
▁엘	-10.4801
뇌	-10.4803
▁힘내세요	-10.4804
▁자아	-10.4806
덜	-10.4808
되면서	-10.4809
고싶	-10.4809
▁○	-10.481
▁기름	-10.4812
▁고민입니다	-10.4816
▁하려	-10.482
돌아	-10.4825
▁스타일	-10.4826
▁조금이라도	-10.4827
▁대통령이	-10.4828
▁상처받	-10.4829
즘	-10.4833
▁못했	-10.4835
겹	-10.4836
▁내지	-10.4843
▁아이디어	-10.4846
▁물건을	-10.4848
▁같지	-10.4851
▁사태	-10.4857
▁훌륭한	-10.4857
▁죽이	-10.486
▁발휘	-10.4862
▁취급	-10.4865
의식	-10.4866
021	-10.4872
的	-10.4875
쇼	-10.4882
speaker	-10.4883
▁많습니다	-10.4888
만으로도	-10.4889
▁협	-10.4895
▁활동을	-10.4896
▁단순한	-10.4898
▁변화를	-10.4899
▁모르지만	-10.4903
신청	-10.4903
▁효과를	-10.4903
▁이모	-10.4906
▁받았는데	-10.4906
▁삼십	-10.491
▁태양	-10.4911
어진	-10.4915
▁동료	-10.4915
▁(1	-10.4916
▁나타나는	-10.4917
▁초반	-10.4918
구를	-10.4921
업체	-10.4921
십니까	-10.4922
체제	-10.4923
▁:)	-10.4925
시길	-10.4925
▁교수님	-10.4925
▁줘	-10.4929
▁절대로	-10.4936
▁ᄏᄏᄏᄏᄏᄏᄏᄏᄏᄏ	-10.4937
▁형제	-10.4942
▁되서	-10.4944
분의	-10.4945
▁상관없	-10.4945
붕	-10.4947
쇠	-10.4947
▁책임을	-10.4949
▁거쳐	-10.4949
▁사람들도	-10.4958
▁대학생	-10.4959
▁이루어지	-10.496
▁높아	-10.4964
▁준비를	-10.4966
시킨다	-10.4967
▁너희	-10.4968
▁노래를	-10.4969
一	-10.4969
__06/	-10.4969
▁방식으로	-10.4978
▁당신을	-10.4981
▁만남	-10.4982
▁하겠습니다	-10.4987
▁열정	-10.4987
▁사물	-10.4988
▁왔는데	-10.4988
▁기쁨	-10.4988
▁끊임없이	-10.4988
199	-10.499
▁가능하다	-10.4993
▁이야기가	-10.4995
▁웃음	-10.4996
▁추구	-10.5003
▁분리	-10.5005
▁하겠다	-10.5006
▁감동	-10.5006
co	-10.5008
▁슬픔	-10.5008
▁시집	-10.5011
이예요	-10.5011
▁보다가	-10.5011
▁시간은	-10.5013
▁공무원	-10.5013
없어	-10.5013
넌	-10.5014
▁유학	-10.5018
▁동일	-10.502
▁공동체	-10.5033
▁좋다고	-10.5035
▁신분	-10.5039
▁협상	-10.5041
」,	-10.5044
갓	-10.5044
저는	-10.5049
▁있으	-10.505
칙	-10.505
▁위의	-10.5052
▁ᄋ	-10.5055
진이	-10.5057
▁내내	-10.5062
ir	-10.5062
몬	-10.5063
▁모임	-10.5063
^	-10.5063
▁걷	-10.5065
▁것일까	-10.5066
▁하고싶은	-10.5069
▁;	-10.507
▁그들을	-10.5072
▁가치를	-10.5074
미가	-10.5078
金	-10.5079
겠는가	-10.508
▁수출	-10.5081
화의	-10.5082
▁목소리가	-10.5086
▁얻을	-10.5091
히고	-10.5095
▁삶이	-10.51
▁솔	-10.51
▁이내	-10.5103
▁벌금	-10.5106
따라	-10.5106
▁젊	-10.5109
▁못하겠	-10.5111
▁침대	-10.5111
▁가질	-10.5116
▁소문	-10.5116
▁나름대로	-10.5117
▁말씀이	-10.512
▁사소한	-10.5124
▁그쪽	-10.5125
겐	-10.5126
▁슬퍼	-10.5126
▁스타	-10.5127
▁부분은	-10.5132
▁구체적인	-10.5132
▁욕을	-10.5133
더라고	-10.5135
화나	-10.5136
▁일어나는	-10.5137
▁쌍	-10.5142
▁쫓아	-10.5144
▁괜찮아요	-10.5144
▁마케팅	-10.5147
군이	-10.5147
여행	-10.5149
○	-10.515
▁말야	-10.5152
▁드러	-10.5153
시아	-10.5157
▁빠진	-10.5157
서요	-10.5158
▁검사를	-10.516
▁구매	-10.5161
▁기반	-10.5165
▁헌법	-10.5165
▁기업의	-10.5167
▁비싸	-10.5171
▁바라보는	-10.5173
▁그럼에도	-10.5174
▁믿을	-10.5176
▁내용은	-10.5177
하겠습니다	-10.5183
者	-10.5183
해졌다	-10.5184
옹	-10.5186
▁흰	-10.5188
lt	-10.5188
name	-10.519
▁사용하는	-10.5197
쫓	-10.5197
▁정신을	-10.5203
만원을	-10.5204
▁돈도	-10.5205
단계	-10.5205
▁알았다	-10.5208
바람	-10.5208
▁카메라	-10.5208
▁없음	-10.5212
사와	-10.5213
▁주소	-10.5215
▁세월	-10.5216
▁장점	-10.5217
말고	-10.5218
▁오전	-10.5219
▁드시	-10.5222
대한	-10.5225
▁그와	-10.5225
기술	-10.523
▁느꼈	-10.5231
껄	-10.5233
소설	-10.5234
▁되어서	-10.5234
▁이전에	-10.5237
▁띠	-10.5238
▁사랑해	-10.5239
▁90	-10.5244
얘기	-10.5244
어디	-10.5246
om	-10.5247
략	-10.525
',	-10.5251
文	-10.5254
신이	-10.5255
▁대한민국	-10.5259
▁듣기	-10.526
인들은	-10.5262
▁반대로	-10.5264
▁취하	-10.5266
▁언젠가	-10.5266
▁남자는	-10.5271
▁의견을	-10.5276
▁처럼	-10.528
▁모양이	-10.5281
▁서운	-10.5282
▁피부과	-10.5284
▁놀러	-10.5285
▁공기	-10.5285
▁열리	-10.5286
▁혼란	-10.5286
▁방해	-10.5287
새끼	-10.5288
▁무서워	-10.5288
▁다루	-10.5289
▁키가	-10.529
상황	-10.5292
▁전공	-10.5294
기고	-10.5295
때부터	-10.5295
▁해주세요	-10.5298
▁안될	-10.5306
볼까	-10.5306
▁하라고	-10.531
▁너를	-10.5313
어떻게	-10.5314
후에	-10.5314
릉	-10.532
영화	-10.532
▁전망	-10.5326
▁불리	-10.5327
▁있으나	-10.5328
▁용어	-10.533
▁외국인	-10.5332
해진다	-10.5339
▁움직임	-10.534
혔	-10.5341
▁찢어	-10.5342
▁통신	-10.5345
괄	-10.5346
닉	-10.5346
▁장관	-10.5346
▁먹어야	-10.5347
▁살면서	-10.5348
▁길게	-10.5349
▁규	-10.5353
▁아우	-10.5353
▁날짜	-10.5353
▁소녀	-10.5354
▁멋진	-10.5355
▁왠지	-10.5362
▁대상이	-10.5365
던지	-10.5367
▁이웃	-10.537
▁우려	-10.5383
졌어요	-10.5384
사로	-10.5396
▁무엇보다	-10.5399
▁아하	-10.5399
▁영양	-10.54
▁자세	-10.5402
▁말하지	-10.5406
▁상사	-10.5407
▁아이들은	-10.5415
지로	-10.5415
▁누르	-10.5415
▁있었기	-10.5418
시기	-10.5418
애들	-10.5423
떨	-10.5424
▁질서	-10.5424
고싶어요	-10.5425
▁부위	-10.5426
▁번호	-10.5428
▁디자인	-10.5429
▁아이의	-10.5431
▁때문입니다	-10.5431
없다	-10.5432
id	-10.5433
▁빼앗	-10.5434
▁하시고	-10.5438
섰다	-10.5438
상에	-10.5438
▁돈은	-10.5441
▁강제	-10.5442
▁입학	-10.5443
▁들어가서	-10.5443
▁안좋은	-10.5445
▁주어	-10.5447
14	-10.5448
▁고대	-10.5453
▁그릇	-10.5453
▁여자들	-10.5455
▁사이에서	-10.5456
에만	-10.5458
하냐	-10.5458
▁둥	-10.5459
▁예쁜	-10.5463
▁수정	-10.5463
VCN	-10.5466
▁갖게	-10.5473
▁드디어	-10.5473
▁옮기	-10.5474
▁다닐	-10.5476
▁무엇인지	-10.5476
▁강요	-10.5477
빌	-10.5482
으로서의	-10.5485
석이	-10.5488
▁다르게	-10.5489
▁겪	-10.549
흔	-10.5492
▁의하면	-10.55
▁이른바	-10.5503
▁귀찮	-10.5505
▁밝	-10.5507
▁정확하게	-10.5517
▁편집	-10.5518
▁있겠	-10.552
지마	-10.552
▁불교	-10.552
NA	-10.5523
▁파산	-10.5525
▁부서	-10.5526
▁싫은	-10.5527
▁이름으로	-10.5527
▁눈물을	-10.5532
▁않았던	-10.5534
랫	-10.5536
▁놓여	-10.5537
▁곳을	-10.554
▁남편의	-10.554
▁휴대폰	-10.5541
획	-10.5542
▁걱정되	-10.5543
묵	-10.5544
▁겉	-10.5545
▁같았	-10.5552
장애	-10.5558
▁적도	-10.5559
시켰	-10.5561
▁때에	-10.5561
▁구체적으로	-10.5565
▁불법	-10.5565
▁ᄆ	-10.5566
me	-10.5571
▁계단	-10.5573
▁어떨까요	-10.5574
▁입은	-10.5578
▁라디오	-10.5581
▁뒤에서	-10.5582
셨는데	-10.5583
▁비로소	-10.5586
ot	-10.5587
▁민주	-10.5588
▁태어난	-10.559
▁휴가	-10.5592
▁경험이	-10.5593
▁구속	-10.5599
▁보내고	-10.56
▁되었는데	-10.5601
▁ᄒᄒᄒ	-10.5604
▁붙여	-10.5605
▁지르	-10.5607
해줘	-10.561
기의	-10.5611
▁시설	-10.5611
▁족	-10.5612
▁나누어	-10.5616
▁목표를	-10.5617
▁차지	-10.5617
▁불편	-10.5619
▁처음엔	-10.5623
시가	-10.5626
▁그런가	-10.5631
읍	-10.5631
▁없네요	-10.5633
▁개인의	-10.5635
▁미칠	-10.5636
챙	-10.5636
얘	-10.5637
▁활	-10.5637
▁존중	-10.5638
끄러	-10.564
▁멋	-10.564
▁조절	-10.5641
▁뜻이	-10.5641
▁엄마랑	-10.5642
있었	-10.5643
분을	-10.5646
▁나갔다	-10.5648
▁더이상	-10.5651
▁잘못한	-10.5656
▁들어갈	-10.5659
▁출산	-10.5661
▁생각보다	-10.5664
▁미워	-10.5667
▁신호	-10.5668
▁압	-10.5668
▁일종의	-10.5669
노인	-10.5671
▁윤리	-10.5674
▁난리	-10.5675
▁피고	-10.5676
▁말입니다	-10.5677
▁셋째	-10.5677
▁분류	-10.5677
▁번역	-10.5678
리라	-10.568
그게	-10.568
▁상관	-10.5684
▁아가씨	-10.5685
▁공유	-10.5685
▁월세	-10.569
▁부정적인	-10.5693
▁참조	-10.5695
▁금지	-10.5698
▁전까지	-10.5698
▁흥분	-10.57
▁따지	-10.5702
계의	-10.5704
뼈	-10.5704
▁축구	-10.5706
▁설립	-10.5706
던가	-10.5707
▁뒤를	-10.571
▁밀려	-10.5715
것같	-10.5716
▁지냈	-10.5716
▁진리	-10.5717
섰	-10.5718
▁아직까지	-10.5726
▁한두	-10.5728
▁남아있	-10.5728
▁나오지	-10.5731
▁견디	-10.5733
▁자가	-10.5737
▁후반	-10.5738
▁가르쳐	-10.5739
▁딱히	-10.574
um	-10.574
156	-10.5742
겠지요	-10.5743
▁내놓	-10.5746
줌	-10.5747
되었고	-10.5747
▁이자	-10.5748
했는지	-10.5749
▁점은	-10.5751
▁부모님께	-10.5755
랐다	-10.5757
▁하던데	-10.5759
하려면	-10.576
스테	-10.5761
▁반성	-10.5762
▁일하고	-10.5762
▁통과	-10.5764
▁받으면	-10.5766
▁대하	-10.5771
건가	-10.5772
▁끓	-10.5773
▁원망	-10.5778
▁둘러	-10.5778
▁해줄	-10.5781
▁최종	-10.5781
▁간에	-10.5782
▁놓은	-10.5783
▁구멍	-10.5785
▁불안해	-10.5786
▁과장	-10.5787
SBJ	-10.5789
▁여섯	-10.5793
▁주방	-10.5802
▁굽	-10.5816
▁물이	-10.5818
비는	-10.5818
▁매번	-10.5819
▁비행기	-10.5821
▁회사를	-10.5823
▁외교	-10.5825
▁남았	-10.5829
▁물러	-10.583
원희	-10.583
▁같애	-10.583
▁아시	-10.5832
환경	-10.5832
▁죄송	-10.5833
원은	-10.5834
▁짐작	-10.5836
▁알아야	-10.5837
▁구별	-10.5837
줘요	-10.5839
▁녹음	-10.584
콜	-10.5843
그렇게	-10.5846
▁전반	-10.5847
▁잡지	-10.5848
▁돌아서	-10.5852
▁조각	-10.5853
▁콩	-10.5853
표를	-10.5855
▁자존심	-10.5856
▁연관	-10.5861
해보세요	-10.5863
시오	-10.5864
▁드러나	-10.5866
▁따위	-10.5866
子	-10.5868
▁예측	-10.5868
▁몰라서	-10.5873
▁하얀	-10.5875
▁불가능	-10.5875
▁촉	-10.5882
▁늘어나	-10.5883
빵	-10.5884
지방	-10.5886
:....	-10.5894
▁감소	-10.5896
▁묶	-10.5897
▁곱	-10.5898
▁참석	-10.5898
▁무기	-10.5899
▁사전	-10.5901
으론	-10.5901
샤	-10.5902
▁부족한	-10.5903
▁넓은	-10.5918
▁스스로를	-10.592
▁내는	-10.592
▁끝이	-10.5926
▁세우	-10.5926
▁안고	-10.5928
▁고치	-10.593
▁대립	-10.5932
프로	-10.5933
▁팬	-10.5938
색이	-10.5941
가면서	-10.5942
▁토요일	-10.5944
▁바깥	-10.5949
▁것이라	-10.5949
▁못해서	-10.5951
몸	-10.5953
회를	-10.5953
▁구축	-10.5954
▁경험을	-10.5956
그런데	-10.5959
▁없었고	-10.5961
▁참고로	-10.5961
▁씨는	-10.5962
▁발언	-10.5962
▁퇴직	-10.5962
▁고양이	-10.5963
스크	-10.5964
▁바라는	-10.5968
▁아내가	-10.5972
▁순서	-10.5975
▁남녀	-10.5975
안에	-10.5976
부인	-10.5976
▁거주	-10.5977
▁낸	-10.5978
▁가을	-10.598
찮	-10.598
▁가르치	-10.5981
▁대략	-10.5982
▁남자들	-10.5983
▁골목	-10.5984
▁발행	-10.5985
방에	-10.5987
쥐	-10.5988
▁편하게	-10.5988
봄	-10.5989
여기	-10.5992
턱	-10.5992
▁라이	-10.5993
없고	-10.5994
겼다	-10.5995
걸로	-10.5997
▁고정	-10.5999
처리	-10.6001
사건	-10.6006
▁속의	-10.6007
트리	-10.6008
▁미디어	-10.6008
▁가능한가요	-10.6009
부는	-10.6009
▁않도록	-10.6013
▁장군	-10.6013
▁시댁	-10.6014
▁밟	-10.6014
▁걸음	-10.6015
▁수치	-10.6016
▁일시	-10.6016
대학교	-10.602
la	-10.6023
에게도	-10.6023
▁비율	-10.6024
▁거대한	-10.6026
▁고통을	-10.6029
▁우리를	-10.603
▁선정	-10.603
주었다	-10.6032
ha	-10.6034
▁창문	-10.6034
▁하거나	-10.6035
정희	-10.6042
픈	-10.6042
▁소화	-10.6044
▁아닌지	-10.6046
▁거라	-10.6047
▁유일한	-10.6047
되었던	-10.6048
▁과거에	-10.6049
었으면	-10.6049
▁갓	-10.605
▁여부	-10.605
▁권위	-10.6052
었다고	-10.6053
께서는	-10.6056
▁느낌을	-10.6057
ay	-10.6062
▁똥	-10.6062
▁이하	-10.6065
텔	-10.6066
▁자본주의	-10.6071
▁하신	-10.6072
▁갔는데	-10.6073
▁버려	-10.6073
스키	-10.6078
쪽에	-10.6078
▁감당	-10.6079
히는	-10.608
▁싶을	-10.6081
▁넘는	-10.6083
평가	-10.6084
▁상처가	-10.6084
▁사무	-10.6091
▁있고요	-10.6092
▁수단	-10.6093
사항	-10.6094
▁손이	-10.6097
▁부작용	-10.6098
서울	-10.6098
▁싫어하는	-10.6099
▁걸어가	-10.6107
▁차원	-10.6108
▁불어	-10.6109
▁마디	-10.6109
▁하나를	-10.611
▁텔레비전	-10.6115
었죠	-10.6115
▁부르는	-10.6116
▁나라의	-10.6117
▁없으니	-10.612
▁신기	-10.6121
▁좋겠	-10.6123
▁지인	-10.6124
▁때리	-10.6124
▁소재	-10.6125
▁날씨	-10.6128
▁들어주	-10.6128
자기	-10.6133
▁시선을	-10.6133
▁대개	-10.6133
▁숨어	-10.6133
연히	-10.6137
인을	-10.6138
오르	-10.614
▁정부가	-10.6147
▁쉬는	-10.6149
▁재미있	-10.6149
5%	-10.6152
▁자전거	-10.6152
▁부탁드려요	-10.6155
랴	-10.6155
▁보세요	-10.6156
▁어머니의	-10.6156
사실	-10.6161
▁연주	-10.6163
관을	-10.6164
직원	-10.6169
▁자기의	-10.6171
▁살인	-10.6172
▁아프다	-10.6172
▁죽여	-10.6172
▁방에	-10.6173
▁나아	-10.6174
▁부러	-10.6178
▁입에	-10.6179
▁장애인	-10.6179
▁민중	-10.6186
▁찾아오	-10.6186
▁데려	-10.6188
▁명의로	-10.619
▁퍼센트	-10.619
▁선임	-10.6191
▁먹은	-10.6197
▁최소한	-10.6198
▁민주주의	-10.62
▁묘사	-10.6201
인간	-10.6201
▁참으로	-10.6202
경이	-10.6202
─	-10.6205
▁말하기	-10.6206
188	-10.6207
관련	-10.6211
셨으면	-10.6212
▁측정	-10.6212
▁하여금	-10.6213
님의	-10.6214
▁놈이	-10.6218
▁끝났	-10.6218
르르	-10.6219
쇄	-10.6219
▁잊지	-10.6223
▁실행	-10.6224
▁이별	-10.6226
▁사람으로	-10.623
▁흙	-10.6231
▁친구랑	-10.6232
▁찾고	-10.624
▁복도	-10.6245
일까지	-10.6249
쌍	-10.6254
▁바닥에	-10.6254
▁기회가	-10.6254
칸	-10.6255
먹는	-10.6256
이상	-10.6256
「	-10.626
▁나타났다	-10.6261
▁생각해보	-10.6262
ᄏᄏᄏᄏᄏᄏ	-10.6264
AJT	-10.6265
주셔서	-10.6266
▁수십	-10.6267
▁지도자	-10.6268
▁일어난	-10.6269
▁이대로	-10.6269
▁방학	-10.627
▁직장에서	-10.627
우고	-10.6272
동생	-10.6272
▁평범한	-10.628
158	-10.6281
▁올라오	-10.6285
▁균형	-10.6287
▁성향	-10.6288
▁특별히	-10.6289
▁결국은	-10.6294
퍼센트	-10.6296
▁키워	-10.6298
더러	-10.63
랍니다	-10.6301
▁하루종일	-10.6302
보다도	-10.6303
▁절망	-10.6303
ᅳ	-10.6303
▁가르	-10.6303
▁엉덩이	-10.6304
▁좌우	-10.6304
많이	-10.6307
▁사업을	-10.6313
좋은	-10.6313
보니까	-10.6315
▁겨	-10.6323
▁어머	-10.6324
▁맞았	-10.6328
기보다는	-10.6329
▁상실	-10.633
▁붙이	-10.6332
카드	-10.6332
▁남을	-10.6335
▁소변	-10.6335
▁친구도	-10.6335
▁자격	-10.6338
연구	-10.6339
▁시대에	-10.634
▁대장	-10.6347
▁그때는	-10.6349
과정	-10.6349
다보면	-10.6356
▁차별	-10.6356
거리고	-10.6358
▁아니라는	-10.6364
▁원인이	-10.6365
까진	-10.6366
▁여겨	-10.6367
▁어디로	-10.6367
체가	-10.6368
▁예쁘	-10.637
▁독서	-10.6372
XPN	-10.6374
▁때문이었다	-10.6376
▁앙	-10.6379
▁간의	-10.638
▁살피	-10.6388
▁방향으로	-10.6388
▁쪽에서	-10.6388
▁일이었다	-10.6389
곁	-10.639
▁시점	-10.6399
▁겸	-10.64
▁싶네요	-10.6401
져야	-10.6403
▁맥주	-10.6405
▁삼성	-10.6406
단을	-10.6409
▁충분	-10.6416
순이	-10.6417
1">	-10.6419
짱	-10.642
왔습니다	-10.6421
▁이념	-10.6422
캐	-10.6424
▁보증금	-10.6427
▁민간	-10.6429
▁열린	-10.643
170	-10.6438
▁^^	-10.6439
265	-10.6439
명은	-10.6441
▁한국인	-10.6441
▁신화	-10.6448
▁점이다	-10.6448
기까지	-10.645
장으로	-10.6451
▁생존	-10.6454
▁오빠가	-10.6462
BG	-10.6462
빼	-10.6462
▁다소	-10.6463
하라는	-10.6465
혼자	-10.647
▁전에는	-10.6473
▁커지	-10.6473
케이	-10.6474
▁입구	-10.6477
인들의	-10.6478
▁그리하여	-10.648
▁온몸	-10.6483
▁사실상	-10.6483
▁즐기	-10.6484
▁받아보	-10.6484
▁샤	-10.6485
▁외에	-10.6485
탱	-10.649
ity	-10.649
베르	-10.6496
▁협력	-10.6497
▁자신도	-10.6498
▁빠르게	-10.6498
▁질병	-10.6502
니가	-10.6502
▁돌아와	-10.6504
▁몇몇	-10.6505
▁스님	-10.6507
▁정신적	-10.6509
했으면	-10.651
▁무언가	-10.6512
@	-10.6512
▁어린이	-10.6513
하기가	-10.6513
▁애인	-10.6515
고싶은데	-10.6517
▁강력한	-10.6519
▁알겠	-10.6519
웃음	-10.6524
시키기	-10.6524
쥬	-10.6525
▁관점	-10.6525
▁무지	-10.6525
▁한잔	-10.6526
준비	-10.6528
▁회원	-10.6529
▁읽는	-10.6529
▁가슴에	-10.6529
≫	-10.653
콘	-10.653
▁연장	-10.6533
▁샀	-10.654
▁별거	-10.6543
괴	-10.6544
▁0.	-10.6552
▁힘드	-10.6553
듬	-10.6557
야겠다	-10.6558
자면	-10.6559
▁시대의	-10.6561
들었다	-10.6562
주일	-10.6563
▁좋겠습니다	-10.6563
▁뽑아	-10.6567
▁넘기	-10.6567
▁미루	-10.6568
체를	-10.6568
차를	-10.6569
▁말아	-10.6571
▁하실	-10.6575
뇨	-10.6578
▁안되고	-10.6578
▁참가	-10.6578
ie	-10.6578
▁선언	-10.6583
전쟁	-10.6583
드릴	-10.6584
▁씹	-10.6586
▁확정	-10.6587
법이	-10.6589
▁넘어서	-10.659
anchor	-10.6591
▁빨간	-10.6592
▁목소리로	-10.6593
▁쇼	-10.6594
▁왕따	-10.6595
▁한숨	-10.6596
▁논문	-10.6599
ᄇ	-10.66
▁뺏	-10.6601
▁가로	-10.6603
흑	-10.6603
▁신라	-10.6604
▁만지	-10.6612
▁synch	-10.6615
▁오른	-10.6615
▁봤는데	-10.6615
▁말하자면	-10.6619
▁친절	-10.6623
의욕없음	-10.6623
▁여자를	-10.6623
▁틀어	-10.6631
윈	-10.6631
공부	-10.6632
방을	-10.6634
▁때로는	-10.6635
▁회사의	-10.6636
▁문명	-10.6639
▁나가고	-10.6639
?'	-10.6648
▁합격	-10.665
▁어떡해	-10.6653
▁들어간다	-10.6657
▁나아지	-10.6657
▁사이가	-10.6657
▁아름답	-10.6659
되서	-10.6661
▁상태가	-10.6666
원에	-10.6666
▁제게	-10.667
▁가해자	-10.6671
노동	-10.6672
▁풍경	-10.6673
▁상당	-10.6674
▁재정	-10.6676
▁성격을	-10.6676
▁보유	-10.6686
▁버텨	-10.6686
▁일어났	-10.669
▁혀	-10.669
버리는	-10.669
▁중간에	-10.669
▁세상에서	-10.6692
세상	-10.6693
년전	-10.6694
건가요	-10.6696
▁일요일	-10.6696
▁성질	-10.6697
18	-10.6703
▁싫어서	-10.6706
'(	-10.6706
▁보는데	-10.6708
▁붓	-10.671
야만	-10.6711
▁기운	-10.6712
▁나갔	-10.6713
▁놔	-10.6721
▁글쓴이님	-10.6722
년부터	-10.6723
學	-10.6724
▁당한	-10.6727
▁들어갔다	-10.6731
▁지금의	-10.6735
▁지불	-10.674
▁엔	-10.6741
▁고맙습니다	-10.6741
▁손목	-10.6748
하진	-10.6749
▁흔적	-10.675
▁그사람	-10.6753
▁싶었다	-10.6754
▁당사자	-10.6754
▁정부의	-10.6757
▁알아요	-10.6758
적이다	-10.6759
라니	-10.6759
130	-10.6762
로서는	-10.6764
▁모르겠고	-10.6765
▁않았지만	-10.6767
▁연출	-10.6768
▁들어간	-10.6769
딴	-10.6771
▁들어갔	-10.6771
▁비롯한	-10.6773
▁떡	-10.6774
되었	-10.6776
▁알기	-10.6779
방에서	-10.6783
문이	-10.6783
▁깊	-10.6785
▁꽉	-10.6785
▁대표적인	-10.6786
▁바람이	-10.6787
춤	-10.6795
ne	-10.6796
받았	-10.6797
▁일치	-10.6799
▁주가	-10.6799
▁파리	-10.6801
내용	-10.6801
▁우유	-10.6802
▁너의	-10.6802
전이	-10.6804
▁나오면	-10.6807
權	-10.6807
때까지	-10.6808
▁있습니까	-10.6809
월부터	-10.6811
▁가능하	-10.6817
▁신경을	-10.6819
▁ᄏᄏᄏᄏᄏᄏᄏᄏᄏᄏᄏ	-10.6821
군데	-10.6821
▁달성	-10.6825
▁투쟁	-10.6825
▁고등학생	-10.6829
형이	-10.6832
▁나타난	-10.6835
▁쉬고	-10.6836
▁압박	-10.6837
▁흘리	-10.6837
▁채권	-10.6839
을텐데	-10.684
▁밝은	-10.6842
▁회사가	-10.6842
▁자존감	-10.6842
▁채워	-10.6847
▁행복하	-10.6848
어머	-10.6848
▁말인가	-10.685
200	-10.685
▁유행	-10.6851
하고싶	-10.6853
▁신발	-10.6855
▁싶다는	-10.6857
▁일어날	-10.6863
▁싹	-10.6865
이었는데	-10.6865
이네	-10.6879
많	-10.688
▁원고	-10.6881
▁이쁘	-10.6885
▁꿀	-10.6888
▁유산	-10.689
▁켜	-10.6893
▁계획을	-10.6895
X	-10.6898
▁잠들	-10.6899
시설	-10.69
▁재수	-10.6901
▁친구와	-10.6901
▁연속	-10.6902
▁ᄀ	-10.6903
▁지니고	-10.6904
▁중국의	-10.6904
140	-10.6907
▁맛있는	-10.6907
▁않는다는	-10.6908
텐	-10.6908
ec	-10.6909
?」	-10.6909
▁나타난다	-10.6913
▁기침	-10.6917
하겠다	-10.6917
▁길어	-10.6923
것을	-10.6923
▁블	-10.6924
▁적극적으로	-10.6924
▁저녁에	-10.6929
▁하나로	-10.6935
다음	-10.6937
▁쪽에	-10.694
트로	-10.6941
▁재료	-10.6941
주의적	-10.6943
▁침묵	-10.6947
▁냈	-10.6947
▁배우자	-10.6948
번호	-10.6952
시간에	-10.6953
▁의미한다	-10.6953
▁사랑이	-10.6954
329	-10.6955
▁초대	-10.6963
내려	-10.6963
렸습니다	-10.6965
▁저거	-10.697
▁알았는데	-10.6971
▁까닭	-10.6975
▁안녕	-10.6976
▁들어온	-10.6976
하지는	-10.6978
▁낭	-10.6982
원으로	-10.6982
__07/	-10.6985
▁이불	-10.6987
핏	-10.6987
▁굶	-10.6987
▁존경	-10.6988
▁편지를	-10.6989
.」	-10.699
사상	-10.6991
▁지났	-10.6993
▁인사를	-10.6997
방울	-10.6998
▁대가	-10.7
▁눈길	-10.7003
▁기준으로	-10.7003
▁던져	-10.7003
▁문제점	-10.7008
▁복수	-10.701
▁150	-10.7013
▁놓아	-10.7013
▁지옥	-10.7016
▁슈	-10.7017
▁보증	-10.7018
에서부터	-10.7019
갑니다	-10.7023
▁줄어들	-10.7023
▁되니까	-10.7023
▁피곤	-10.7024
▁나빠	-10.7027
문의	-10.7027
께요	-10.7027
▁한동안	-10.7033
랜드	-10.7035
▁서서히	-10.7035
▁시계	-10.7036
▁복잡	-10.7036
▁자세한	-10.7036
▁딸이	-10.7044
▁들을	-10.7049
▁U	-10.705
▁만들었다	-10.7051
롭	-10.7051
▁소위	-10.7051
▁상황입니다	-10.7052
그건	-10.7054
▁색깔	-10.7054
▁재능	-10.7059
▁차가	-10.706
▁서구	-10.706
▁형태로	-10.7061
▁법적	-10.7062
▁?/	-10.7062
▁붙잡	-10.7066
▁학교를	-10.7066
▁매매	-10.7069
ment	-10.7071
▁놀란	-10.7074
▁새롭게	-10.7075
조의	-10.7076
실로	-10.7077
▁h	-10.7079
▁부리	-10.708
기와	-10.7081
▁세계를	-10.7082
▁셋	-10.7082
▁시작한다	-10.7084
▁나이에	-10.7087
▁엿	-10.7087
느니	-10.7088
▁오십	-10.7089
▁대문	-10.709
▁자산	-10.709
일부터	-10.7091
▁작아	-10.7091
▁광주	-10.7093
▁궁금하	-10.7093
그림	-10.7093
▁예방	-10.7095
가능	-10.7098
▁몰라요	-10.7099
▁성과	-10.7099
▁안경	-10.7101
▁여드름이	-10.7103
▁아시아	-10.7103
계를	-10.7108
▁쉽	-10.7108
▁풀리	-10.711
▁과거의	-10.7112
▁않을까요	-10.7113
▁점수	-10.7115
▁탄생	-10.7117
▁호흡	-10.7117
▁입장을	-10.7117
♡	-10.7128
240	-10.7128
▁좁	-10.7129
▁홈	-10.713
×	-10.7131
아가	-10.7137
댓	-10.7138
신문	-10.7139
▁이러는	-10.7149
and	-10.7151
위로	-10.7153
군은	-10.7154
가면	-10.7155
▁신고를	-10.7158
하느라	-10.7158
▁취직	-10.716
품을	-10.7161
▁월요일	-10.7163
▁좋은데	-10.7166
드리고	-10.7169
▁먹지	-10.7172
속에서	-10.7174
민족	-10.7175
▁답답하	-10.7175
▁동원	-10.7178
▁들지	-10.7179
138	-10.7179
▁≪	-10.718
tion	-10.7182
▁조용	-10.7182
▁대변	-10.7185
모르	-10.7187
▁착한	-10.719
주시	-10.7193
▁필자	-10.7196
▁변화가	-10.7196
▁어때	-10.7197
시간이	-10.7197
▁노동자	-10.7202
▁크다	-10.7204
▁모르겠네요	-10.721
▁찰	-10.7213
▁높다	-10.7214
ᅲᅮ	-10.7214
-1	-10.7217
민주	-10.722
▁팔을	-10.722
▁가능한지	-10.7222
▁다리를	-10.7224
▁컸	-10.7224
하는지	-10.7229
긴다	-10.7229
▁맛이	-10.7229
끄	-10.7231
』(	-10.7231
▁털어	-10.7231
▁가라앉	-10.7236
▁도덕	-10.7237
▁확장	-10.724
▁그리스	-10.7241
▁비용이	-10.7242
▁옛날에	-10.7242
트는	-10.7245
▁여기까지	-10.7249
▁처지	-10.7253
효과	-10.7256
ut	-10.7256
과학	-10.7256
다시피	-10.7259
▁구두	-10.726
보기	-10.726
▁그림을	-10.7261
컬	-10.7261
▁수상	-10.7262
▁계급	-10.7264
안을	-10.7269
▁측면에서	-10.7269
▁땅을	-10.727
번째	-10.7271
▁허용	-10.7277
▁하라	-10.7278
된다고	-10.7279
▁대답했다	-10.7281
▁정작	-10.7286
소득	-10.7287
모습	-10.7287
▁알았어	-10.7288
▁하나씩	-10.7288
이네요	-10.7289
▁얘길	-10.7292
쓸	-10.7293
▁학생이	-10.7298
▁표정을	-10.7298
▁모순	-10.73
▁안먹	-10.7303
▁영향력	-10.7304
년의	-10.7308
함과	-10.7311
▁갈수록	-10.7314
‘	-10.7317
▁죽음을	-10.7317
려구	-10.732
▁보여주는	-10.7321
▁대단한	-10.7322
▁지위	-10.7323
꼭	-10.7324
▁의욕	-10.7328
▁같애요	-10.7333
2">	-10.7335
▁글쎄	-10.7337
▁삶에	-10.7339
▁강아지	-10.7339
위가	-10.734
▁설계	-10.7341
▁바라보고	-10.7347
하지도	-10.7348
▁들었는데	-10.7352
▁일정한	-10.7355
▁무역	-10.7357
▁단위	-10.7358
촉	-10.736
▁피로	-10.736
렀	-10.7361
마리	-10.7363
▁잔뜩	-10.7364
▁함부로	-10.7364
성애	-10.7365
하겠	-10.7365
▁맞다	-10.7365
하느냐	-10.7367
들한테	-10.7367
▁기념	-10.7369
▁하나하나	-10.7373
분은	-10.7373
든다	-10.7375
▁기능을	-10.7377
▁말투	-10.7383
섬	-10.7385
거렸다	-10.7388
▁떠난	-10.739
▁양식	-10.7392
▁김치	-10.7393
▁뛰어난	-10.7394
그리	-10.7395
▁법칙	-10.74
▁이번엔	-10.7401
렵	-10.7401
▁미래를	-10.7403
350	-10.7404
em	-10.7406
▁아내는	-10.7407
▁여론	-10.7411
▁차원에서	-10.7413
080	-10.7414
▁부럽	-10.7414
▁봉사	-10.7416
▁아닌가요	-10.7417
▁빙	-10.742
▁몰라도	-10.742
동이	-10.7424
▁벨	-10.7425
푼	-10.7426
▁되겠	-10.7427
보겠습니다	-10.7427
▁겁니까	-10.7429
▁기울	-10.743
앞	-10.743
주인	-10.7431
▁경력	-10.7432
▁라인	-10.7432
렷	-10.7433
쾌	-10.7437
▁땡	-10.7437
맘	-10.7438
인거	-10.744
▁어려움	-10.7441
▁만들기	-10.7444
▁확실	-10.7452
▁소장	-10.7455
▁잠재	-10.7457
▁해주는	-10.7459
▁출판	-10.7459
질러	-10.7462
▁출연	-10.7463
나봐	-10.7463
▁개별	-10.7464
▁보라	-10.7467
▁조금은	-10.7469
왔던	-10.7469
▁대구	-10.747
▁낮아	-10.747
▁지향	-10.7473
▁확실한	-10.7474
▁애정	-10.7477
SE	-10.748
▁대기	-10.7481
▁무섭고	-10.7482
▁맞습니다	-10.7485
事	-10.7486
▁도리	-10.7487
▁큰일	-10.7487
▁담아	-10.7488
▁친구들은	-10.7493
▁가볍게	-10.7494
▁나왔습니다	-10.7496
▁의미에서	-10.7497
▁슬픈	-10.7498
서방	-10.7506
▁인생이	-10.7506
▁톡	-10.7507
▁우울한	-10.7507
럭	-10.7511
▁지경	-10.7513
▁친구에게	-10.7519
경을	-10.7523
▁도구	-10.7525
룬	-10.7525
▁밥먹	-10.7526
겟다	-10.7527
량을	-10.7527
다운	-10.7527
▁배워	-10.7527
▁울어	-10.7529
▁어른들	-10.7529
▁무서워서	-10.753
럴	-10.753
ia	-10.753
▁새벽에	-10.7531
볶	-10.7533
▁무섭	-10.7535
▁여기저기	-10.7536
▁칭	-10.7537
▁하긴	-10.7537
▁지쳐	-10.7537
▁고구려	-10.7538
▁않았는데	-10.7539
▁맘에	-10.754
"(	-10.7544
휘	-10.7544
글쎄	-10.7548
▁디스크	-10.755
▁생물	-10.7552
▁행복하게	-10.7552
▁집은	-10.7553
▁주름	-10.7555
뱅	-10.7558
▁돼지	-10.7559
버려	-10.7561
▁부대	-10.7562
서야	-10.7565
山	-10.7565
▁아이들을	-10.7568
▁돌아온	-10.7568
봤습니다	-10.7572
해졌	-10.7574
▁말해서	-10.7575
▁기존의	-10.7576
▁시기에	-10.7577
."</	-10.7577
▁죄송합니다	-10.7578
▁내려오	-10.7578
▁울리	-10.7579
으라	-10.758
▁돼서	-10.7581
▁깨닫	-10.7582
▁버렸다	-10.7587
싫어	-10.759
▁바탕으로	-10.7594
▁잤	-10.7594
주택	-10.7595
▁신학	-10.7595
▁웃기	-10.7598
아무	-10.7598
▁외면	-10.7602
줬으면	-10.7603
다시	-10.7607
▁교실	-10.7607
세대	-10.7609
▁없다면	-10.7609
▁훈	-10.7611
론을	-10.7611
▁됐어요	-10.7611
▁목을	-10.7612
지않아	-10.7615
▁잉	-10.7617
▁마법	-10.7621
▁규제	-10.7624
▁국가의	-10.7625
즐	-10.7626
300	-10.7628
▁몹시	-10.7629
▁홍보	-10.7629
긍	-10.7631
▁팔아	-10.7632
▁지나지	-10.7634
▁애를	-10.7636
▁인생의	-10.7636
▁미소를	-10.7637
▁모습으로	-10.7639
모를	-10.7641
▁지하철	-10.7642
中	-10.7642
▁환상	-10.7642
▁잊어	-10.7643
▁급히	-10.765
▁써서	-10.7651
▁짓을	-10.7653
물론	-10.7655
▁ᅳᅳ	-10.7657
▁들여	-10.7659
▁번도	-10.766
▁행동이	-10.766
▁하구요	-10.7661
▁고마워	-10.7662
SW	-10.7663
李	-10.7663
아직	-10.7664
씨의	-10.7665
체계	-10.7668
ᅥ	-10.7675
▁모르겠어	-10.7676
▁사라져	-10.7677
▁기여	-10.7678
롤	-10.7681
930	-10.7684
▁싶다고	-10.7688
전부터	-10.7693
▁돈으로	-10.7694
조직	-10.7695
▁보기에	-10.7697
▁청와대	-10.7698
▁거두	-10.7698
▁착각	-10.7703
▁웃어	-10.7703
▁험	-10.7708
▁연대	-10.7708
187	-10.7711
▁영원히	-10.7712
▁거리를	-10.7713
뢰	-10.7713
▁2003	-10.7715
▁본래	-10.7715
나가는	-10.7716
▁유진	-10.7718
마는	-10.7719
책을	-10.7719
▁등은	-10.7719
▁없으니까	-10.772
복을	-10.7722
▁관광	-10.7724
▁|	-10.7726
▁떨어지는	-10.7726
▁다양	-10.7728
▁혼인	-10.7728
▁소련	-10.773
혁명	-10.7736
▁안해	-10.774
▁현재의	-10.7745
▁아무렇지	-10.7747
▁있었을	-10.7747
▁티비	-10.775
▁긍정적인	-10.775
▁막막	-10.7752
▁전화가	-10.7752
험	-10.7754
▁당시에	-10.7754
교회	-10.7755
교수	-10.7756
이므로	-10.7759
▁신부	-10.7763
자금	-10.7764
▁다행	-10.7764
한번	-10.7764
프라	-10.7765
▁차려	-10.7766
▁불을	-10.7766
▁법적으로	-10.7768
▁핑계	-10.7768
▁최선을	-10.7775
협회	-10.7776
▁수고	-10.7778
▁좋아서	-10.778
뚝	-10.7788
법에	-10.779
▁됐습니다	-10.7792
▁곤란	-10.7792
▁과일	-10.7794
실에서	-10.7794
▁다행히	-10.7796
▁표정이	-10.7797
▁거듭	-10.7797
▁버린	-10.7799
▁배달	-10.78
호를	-10.7805
년에는	-10.7808
▁남자친구가	-10.7809
▁융	-10.7809
톱	-10.7811
▁결혼식	-10.7811
인에게	-10.7812
▁사회에서	-10.7812
▁지점	-10.7813
▁활발	-10.7815
▁펀드	-10.7816
▁진로	-10.7819
조건	-10.782
▁한번씩	-10.782
▁받아들여	-10.7822
▁In	-10.7824
▁말이에요	-10.7824
일은	-10.7826
op	-10.7827
형사	-10.7827
▁성취	-10.7828
▁대사	-10.7828
▁친척	-10.7828
▁피해를	-10.7831
▁배상	-10.7832
앉	-10.7833
▁걸렸	-10.7834
▁비슷	-10.7835
▁배를	-10.7836
▁좋으	-10.7841
▁이익을	-10.7846
싫	-10.7847
▁누구도	-10.7848
▁주민	-10.7848
▁한반도	-10.7851
行	-10.7859
금이	-10.7861
▁고맙	-10.7863
▁지내고	-10.7866
▁뭐냐	-10.7867
▁말만	-10.7868
▁소속	-10.7871
어가	-10.7873
▁가난	-10.7876
▁경향	-10.7877
▁이중	-10.7882
구가	-10.7882
▁담배를	-10.7883
▁현상이	-10.7883
▁쌍수	-10.7883
▁사회주의	-10.7883
▁통보	-10.7884
▁부엌	-10.7885
▁젤	-10.789
os	-10.7891
▁레이	-10.7894
그래도	-10.7894
병을	-10.7895
중인데	-10.7895
▁발을	-10.7897
▁감추	-10.7902
▁강하게	-10.7903
155	-10.7906
왔는데	-10.7907
▁구원	-10.7908
뒀	-10.7908
보이	-10.7912
▁한계	-10.7914
▁이끌어	-10.7915
▁마침	-10.7921
춰	-10.7921
▁어떻게든	-10.7923
▁부모님은	-10.7925
▁일어나서	-10.7926
▁봤을	-10.7926
팩	-10.7926
▁시어머니	-10.7927
▁땅에	-10.7928
▁의문	-10.7928
無	-10.7932
▁응응	-10.7932
하시면	-10.7934
▁미련	-10.7942
▁적절한	-10.7945
600	-10.7945
학의	-10.7947
놀라	-10.7951
▁꼽	-10.7954
차가	-10.7954
▁주말에	-10.7955
▁고집	-10.7955
▁어느새	-10.7957
▁숨기	-10.7957
▁얘기해	-10.7959
▁주머니	-10.7962
▁간단한	-10.7963
방식	-10.7964
내리	-10.7967
국이	-10.7969
쯤에	-10.797
▁■	-10.797
누구	-10.797
자료	-10.7972
▁센	-10.7979
▁일상생활	-10.7979
▁작년에	-10.798
▁하구	-10.798
▁헬	-10.7983
▁존재하는	-10.7985
▁접수	-10.7985
▁매출	-10.7986
▁방으로	-10.7988
했었	-10.7993
▁벌어지	-10.7994
▁동일한	-10.7995
틱	-10.7996
륜	-10.7997
▁2002	-10.7998
▁가끔씩	-10.8001
되게	-10.8006
들끼리	-10.8011
픽	-10.8013
▁관점에서	-10.8013
였어	-10.8018
젓	-10.8019
▁걸까	-10.8021
▁무서워요	-10.8023
▁수면	-10.8023
▁들여다보	-10.8028
▁오랜만에	-10.8028
▁구석	-10.8029
▁사실이다	-10.803
▁힘드네요	-10.8031
▁보러	-10.8032
▁꽂	-10.8034
아닌	-10.8034
▁대책	-10.8035
권의	-10.8038
▁아팠	-10.8039
혔다	-10.804
▁테이블	-10.8041
▁내에서	-10.8043
▁하더라고요	-10.8047
준호	-10.8047
▁억울하	-10.805
920	-10.8052
▁치아	-10.8053
하하하	-10.8054
▁먹기	-10.8055
집을	-10.806
▁비교적	-10.8065
업자	-10.8065
▁우연히	-10.8068
▁관련해서	-10.8069
집에서	-10.807
버린다	-10.807
잎	-10.8071
▁뉴	-10.8072
▁그러는데	-10.8073
天	-10.8073
▁만화	-10.8073
금순	-10.8075
▁써야	-10.8079
▁비가	-10.8081
▁향상	-10.8081
▁일곱	-10.8084
▁마음대로	-10.8085
▁엄마를	-10.8088
▁흘	-10.8088
▁달라지	-10.8089
▁머리에	-10.8089
▁몇일	-10.809
▁X	-10.8091
▁중입니다	-10.8092
▁경매	-10.8095
▁조치	-10.8096
델	-10.8097
▁진보	-10.8097
▁쉴	-10.8098
산이	-10.81
▁인격	-10.8105
▁행복해	-10.8106
▁설명을	-10.8107
▁못받	-10.8107
▁싱	-10.8107
▁여기에서	-10.8111
ist	-10.8113
▁연합	-10.8113
니아	-10.8113
판을	-10.8115
▁중단	-10.8118
었거든요	-10.8118
159	-10.8118
▁뜨거운	-10.8121
▁여자의	-10.8126
▁이쁜	-10.8126
▁묻어	-10.8127
▁차단	-10.8127
했지	-10.8128
▁대해서도	-10.813
▁면에서	-10.8132
결과	-10.8132
▁민주당	-10.8134
!!!!	-10.8134
므로	-10.8137
▁대안	-10.8138
▁많지	-10.814
▁경비	-10.8141
술을	-10.8141
▁혁신	-10.8142
▁진지하게	-10.8142
부터는	-10.8143
▁강남	-10.8144
▁되요	-10.8146
050	-10.8147
▁찾기	-10.8148
▁습	-10.8148
▁했지	-10.8148
▁뚜렷	-10.815
▁분들은	-10.8151
▁말아야	-10.8153
▁아파요	-10.8157
오면	-10.8158
▁권한	-10.8158
년째	-10.8159
▁뭐든	-10.816
▁사이트	-10.8161
테니	-10.8162
분석	-10.8163
▁입금	-10.8164
▁베이	-10.8165
바닥	-10.8167
저녁	-10.8167
▁비싼	-10.8167
알아	-10.8168
년도	-10.8173
▁거다	-10.8174
性	-10.8176
▁먹이	-10.8176
▁해소	-10.8178
▁가치가	-10.8179
해라	-10.818
▁마르	-10.8181
▁엄마의	-10.8184
▁나간	-10.8185
하곤	-10.8186
통신	-10.8187
▁어깨를	-10.8189
화는	-10.819
▁신비	-10.8191
▁매체	-10.8191
ex	-10.8191
per	-10.8191
걱정	-10.8194
것은	-10.8196
론적	-10.8196
뎅	-10.8197
▁냄새가	-10.8199
▁생각만	-10.8199
▁괴로워	-10.8213
했으나	-10.8215
▁남편과	-10.8218
▁라면	-10.822
▁자동	-10.822
▁상당한	-10.8223
단다	-10.8223
▁시작되	-10.8225
▁개입	-10.8228
man	-10.823
▁하느님	-10.8232
트가	-10.8233
▁이것저것	-10.8235
▁얻은	-10.8235
▁개인적으로	-10.8241
▁끌려	-10.8242
시까지	-10.8244
▁그들에게	-10.8245
업을	-10.8245
백만	-10.8245
▁목숨을	-10.8248
▁될까	-10.825
▁지나치게	-10.825
▁삼촌	-10.8253
vi	-10.8255
톡	-10.8256
▁자위	-10.8257
▁복잡한	-10.8257
컷	-10.8259
탑	-10.8259
하겠다고	-10.826
▁보내는	-10.8261
▁기차	-10.8261
▁집행	-10.8262
▁답답하고	-10.8262
▁고모	-10.8263
시를	-10.8264
▁주무	-10.8265
▁절반	-10.8269
뚜	-10.8271
▁바위	-10.8275
▁생각했는데	-10.8276
성으로	-10.8277
▁것인데	-10.8278
▁안가	-10.8278
▁조화	-10.8279
▁필러	-10.8286
▁중반	-10.8286
ct	-10.8287
학원	-10.8289
권이	-10.8291
▁자신들의	-10.8297
정의	-10.8298
▁중학생	-10.8303
▁거고	-10.8303
▁놀고	-10.8306
▁들어왔	-10.8306
▁거짓	-10.8306
▁예산	-10.8306
▁드릴	-10.8308
▁순수	-10.8309
▁피우	-10.8309
▁개방	-10.8311
▁저번에	-10.8314
▁군인	-10.8315
120	-10.8316
▁방어	-10.8318
▁않았어요	-10.8318
중인	-10.832
▁누군가가	-10.832
▁있겠지만	-10.8322
▁미국에서	-10.8326
폭력	-10.8326
물로	-10.8327
▁생각한	-10.8328
제는	-10.8329
▁귀족	-10.833
▁농담	-10.833
▁1990	-10.8331
▁대형	-10.8331
;;;	-10.8333
▁성인이	-10.8333
▁얼마전	-10.8333
▁리더	-10.8336
▁푸른	-10.8338
금액	-10.8338
▁양반	-10.8339
▁멋있	-10.8339
▁(1)	-10.834
어를	-10.8341
갔어요	-10.8342
text	-10.8343
▁달래	-10.8348
▁Re	-10.8348
▁진출	-10.8348
법은	-10.8349
큼	-10.8353
▁현실을	-10.8357
▁과정이	-10.8357
理	-10.8359
▁저희는	-10.8359
▁꼬리	-10.8361
▁어두운	-10.8362
▁뭉	-10.8363
▁눌러	-10.8365
껴	-10.8365
▁같은데요	-10.8367
▁즐거운	-10.8368
벼	-10.8372
▁논쟁	-10.8377
▁처분	-10.8379
▁당당	-10.838
미를	-10.8383
▁어리	-10.8384
▁등급	-10.8387
▁안들어	-10.8389
▁가는데	-10.8389
236	-10.839
▁너한테	-10.839
년동안	-10.8394
기에는	-10.8401
▁심해지	-10.8402
▁할수	-10.8403
▁흔들리	-10.8406
보라	-10.8407
▁좋습니다	-10.8407
▁썼다	-10.8408
▁여성들	-10.8409
▁만나면	-10.841
150	-10.841
▁예약	-10.8413
▁처녀	-10.8413
▁동작	-10.8413
룸	-10.8417
▁아는데	-10.8418
▁감히	-10.8421
소가	-10.8423
된다는	-10.8424
▁언제까지	-10.8425
▁하였고	-10.8425
▁공통	-10.8429
▁커뮤니케이션	-10.8429
▁나두	-10.8431
▁난다	-10.8431
▁즉시	-10.8433
▁알겠습니다	-10.8434
▁말했	-10.8439
소리가	-10.8443
정도로	-10.8444
▁살림	-10.8444
▁뜬	-10.8446
▁여행을	-10.8448
▁그랬는데	-10.8454
▁포기하고	-10.8456
▁연극	-10.846
닐	-10.8461
▁무의식	-10.8461
▁싶었	-10.8464
▁폭발	-10.8465
▁태어났	-10.8465
율이	-10.8467
▁취득	-10.8467
▁있긴	-10.8468
▁생각으로	-10.8469
▁벼	-10.8473
뉴	-10.8475
▁머물	-10.8475
▁합의를	-10.8478
▁되도록	-10.8479
▁머리카락	-10.848
종이	-10.8481
륙	-10.8484
OBJ	-10.8486
▁법이	-10.8487
▁국민의	-10.849
▁전시	-10.8491
▁디지털	-10.8492
길을	-10.8498
▁가슴을	-10.8498
▁도달	-10.8501
160	-10.8503
▁쌍커풀	-10.8504
▁섞	-10.8504
하였으나	-10.8505
▁가져가	-10.8505
▁교환	-10.8506
▁일반적인	-10.8509
▁걔가	-10.851
▁가수	-10.851
▁났다	-10.8511
▁대회	-10.8512
▁알아보고	-10.8517
시험	-10.852
▁가졌	-10.8521
책임	-10.8522
자에	-10.8524
▁맡기	-10.8526
▁만든다	-10.8526
▁딱딱	-10.8527
▁무한	-10.8527
▁얻는	-10.8529
▁어울리	-10.8529
▁왔어요	-10.8534
▁생각해서	-10.8534
▁위대한	-10.8535
▁금요일	-10.8537
▁대박	-10.8538
님께	-10.854
봣	-10.8541
▁복지	-10.8543
▁되돌아	-10.8544
버스	-10.8545
▁화내	-10.8545
▁정원	-10.8547
▁성형외과	-10.8552
봐도	-10.8553
나와	-10.8553
▁들어와서	-10.8556
군을	-10.8556
흡	-10.8556
흠	-10.8562
▁하락	-10.8565
▁시작된	-10.8566
나마	-10.8571
800	-10.8572
▁하는게	-10.8572
기능	-10.8572
▁개인적인	-10.8573
▁됐는데	-10.8573
▁결정을	-10.8574
▁자원	-10.8574
▁되어야	-10.8577
▁35	-10.8578
▁다짐	-10.8579
댕	-10.858
▁분은	-10.8582
▁경향이	-10.8586
썩	-10.8586
였지만	-10.8586
▁사서	-10.8587
▁숨이	-10.8589
▁생기고	-10.8589
컨	-10.859
▁화나	-10.859
▁프로젝트	-10.8594
▁공정	-10.8595
쓴	-10.8596
▁기다리는	-10.8597
▁득	-10.8597
하나요	-10.8599
▁노예	-10.86
▁더구나	-10.8601
▁통치	-10.8604
드릴게요	-10.8605
070	-10.861
▁벌이	-10.861
▁최소	-10.8613
개가	-10.8614
▁(2)	-10.8614
▁데서	-10.8617
▁객	-10.8619
▁l	-10.862
▁잠도	-10.8622
앵	-10.8625
순위	-10.8626
상궁	-10.8628
▁감사하겠습니다	-10.8628
▁나지	-10.8629
딘	-10.8629
▁서술	-10.863
▁커서	-10.8631
둑	-10.864
▁했다는	-10.8641
▁춤	-10.8642
▁Q	-10.8643
▁중독	-10.8644
▁유통	-10.8645
▁ᄏᄏᄏᄏᄏᄏᄏᄏᄏᄏᄏᄏ	-10.8646
▁다가와	-10.8647
▁보조	-10.8651
▁만들었	-10.8652
▁한국에	-10.8655
▁생겨서	-10.8655
▁지휘	-10.8657
▁놀랐	-10.8658
▁되어있	-10.8659
▁약속을	-10.8661
▁테니까	-10.8662
스럽고	-10.8662
치기	-10.8662
▁시청	-10.8664
▁우수	-10.8664
▁나은	-10.8667
하셔서	-10.8669
▁t	-10.8671
▁지하	-10.8672
▁본인의	-10.8674
▁갚아	-10.8675
▁지각	-10.8677
▁신중	-10.868
▁일년	-10.8681
▁옆으로	-10.8688
▁질투	-10.8689
道	-10.869
▁죽었	-10.8691
▁주면	-10.8691
▁성실	-10.8695
▁있냐	-10.8697
▁모습은	-10.8701
▁수영	-10.8701
밖	-10.8702
▁주위에	-10.8703
하에	-10.8703
▁자체를	-10.8706
▁지정	-10.8707
▁최초의	-10.8707
▁중의	-10.8711
▁골라	-10.8712
▁그린	-10.8717
▁힘들다고	-10.8719
▁사회에	-10.8722
▁주신	-10.8723
▁장수	-10.8725
▁하셨습니다	-10.8725
▁글이	-10.8726
▁접촉	-10.8727
제로	-10.8727
▁둘러보	-10.8728
▁화해	-10.8729
▁움직이는	-10.873
▁역사를	-10.8733
▁채우	-10.8735
영애	-10.8738
증을	-10.874
▁여성의	-10.8741
▁명예	-10.8742
핀	-10.8743
▁조사를	-10.8745
▁전하	-10.8747
▁직전	-10.8749
▁되네요	-10.8751
고싶은	-10.8755
아들	-10.8755
통을	-10.8756
▁기어	-10.8756
▁해주고	-10.8761
림이	-10.8762
웨이	-10.8763
▁배운	-10.8765
▁박수	-10.8765
▁걷는	-10.8765
었지	-10.8766
▁일제	-10.8773
▁사정이	-10.8777
▁참아	-10.8777
학자	-10.8777
겠소	-10.8778
렀다	-10.8781
會	-10.8782
▁교육을	-10.8782
▁이름은	-10.8783
▁붓기	-10.8783
▁살아있	-10.8783
리스트	-10.8791
▁일자리	-10.8793
▁지금부터	-10.8793
▁케이	-10.8794
려는데	-10.8794
▁이러고	-10.8796
으실	-10.8798
▁앉은	-10.8799
▁몫	-10.88
▁때려	-10.8801
▁않았을	-10.8801
▁상대방이	-10.8801
▁재수술	-10.8804
▁터지	-10.8805
▁논란	-10.8807
▁프리	-10.8807
▁좋아한다	-10.8811
▁안방	-10.8813
▁추정	-10.8813
▁가깝	-10.8816
실을	-10.8817
제품	-10.8818
▁동양	-10.8819
▁인천	-10.8822
▁그친구	-10.8823
▁신청을	-10.8824
▁일행	-10.8826
▁이외에	-10.8826
하겠다는	-10.8827
▁죽고싶다	-10.8827
▁목적으로	-10.8829
700	-10.8842
▁튀	-10.8842
▁혹시나	-10.8844
▁굳어	-10.8845
숭	-10.8846
▁식물	-10.8849
▁소수	-10.8851
상품	-10.8854
__08/	-10.8855
▁하셔서	-10.8855
▁물리	-10.8857
내기	-10.886
▁사업자	-10.886
대출	-10.8862
▁국어	-10.8866
▁해보고	-10.8868
드립니다	-10.8868
▁내리는	-10.8869
삐	-10.887
애가	-10.8873
▁사건을	-10.8874
▁내년	-10.8878
사실혼	-10.8879
▁이뤄	-10.8883
▁쪽이	-10.8884
▁이거는	-10.8885
AZ	-10.8886
▁굳	-10.8886
▁째	-10.8888
▁갈라	-10.8889
▁우리집	-10.889
▁놓치	-10.8891
▁빛이	-10.8894
ate	-10.8894
od	-10.8895
▁바이	-10.8896
▁관계에	-10.8896
꺼야	-10.89
▁흐르는	-10.8901
▁구름	-10.8904
▁인용	-10.8904
▁잇는	-10.8906
▁하늘을	-10.8907
남편	-10.8912
▁쉬어	-10.8912
▁줘야	-10.8913
son	-10.8914
▁목사	-10.8915
녕	-10.8918
▁취해	-10.8918
연구소	-10.892
▁시발	-10.8921
▁빛을	-10.8921
다구	-10.8921
▁무거운	-10.8921
▁영감	-10.8922
▁그야말로	-10.8923
▁끼고	-10.8924
스카	-10.8924
▁위반	-10.8927
▁사람한테	-10.8927
▁넘겨	-10.8929
▁어려울	-10.893
▁다닌	-10.8934
정수	-10.8935
▁이곳에	-10.8936
▁마음도	-10.8937
▁대단히	-10.8938
180	-10.8938
▁빠르	-10.8939
▁이들의	-10.8941
▁층	-10.8942
멘	-10.8943
▁당해	-10.8944
라인	-10.8945
대회	-10.8945
▁시작했습니다	-10.8947
▁안된다고	-10.8948
기사	-10.8949
겠냐	-10.895
▁나보다	-10.895
▁마루	-10.8952
▁달에	-10.8954
▁양도	-10.8956
▁대고	-10.8957
940	-10.8958
書	-10.896
▁이천	-10.896
▁공중	-10.8962
▁맞이	-10.8964
영실	-10.8966
▁우는	-10.8967
▁곰	-10.8969
▁안맞	-10.8973
▁매장	-10.8973
▁똑똑	-10.8976
▁무엇보다도	-10.8979
▁인민	-10.8982
▁막아	-10.8983
▁앓	-10.8984
햇는데	-10.8986
▁관념	-10.8987
▁홀로	-10.8989
▁속상하	-10.899
▁불편하	-10.8992
▁친해지	-10.8994
▁은혜	-10.8995
라스	-10.8995
▁억압	-10.8996
그래요	-10.8998
식은	-10.8999
060	-10.8999
▁달려가	-10.9001
ard	-10.9002
▁간주	-10.9008
220	-10.9009
▁문재인	-10.9011
▁소통	-10.9011
▁마치고	-10.9013
영범	-10.9016
달러	-10.9018
▁다가오	-10.9018
ig	-10.9021
▁아르바이트	-10.9021
하지않	-10.9021
▁농사	-10.9023
▁않는다고	-10.9024
거같아	-10.9024
▁마구	-10.9025
▁45	-10.9025
나게	-10.9029
▁법정	-10.9029
▁휴식	-10.9034
▁건가	-10.9035
▁또다시	-10.9036
▁그까	-10.9041
호가	-10.9043
▁어쩌다	-10.9043
▁둘다	-10.9043
떄	-10.9044
▁약간의	-10.9045
▁설마	-10.9046
110	-10.9049
▁지우	-10.905
▁잃고	-10.905
▁이렇	-10.905
스토	-10.9051
거면	-10.9051
학을	-10.9051
▁핀	-10.9054
▁하는거	-10.9054
▁널리	-10.9054
▁봐서	-10.9056
▁가져다	-10.9057
ᅮᅮᅮ	-10.9058
화와	-10.906
▁행복을	-10.9061
▁고유	-10.9063
▁산책	-10.9066
▁납니다	-10.9067
▁모으	-10.9068
▁건네	-10.9071
료를	-10.9071
▁자궁	-10.9072
▁법인	-10.9073
▁여러분들	-10.9073
음에도	-10.9073
▁나라를	-10.9073
덩이	-10.9074
되며	-10.9078
▁세계의	-10.9078
▁다른사람	-10.9081
▁붉	-10.9081
살아	-10.9082
▁현지	-10.9082
▁결과는	-10.9082
봐라	-10.9083
▁공주	-10.9083
▁셈이다	-10.9083
▁한달에	-10.9087
▁충실	-10.9091
▁미쳤	-10.9095
▁부모가	-10.9096
▁pp	-10.9096
▁de	-10.9097
▁사라진	-10.9101
con	-10.9103
▁지속적으로	-10.9105
▁했었는데	-10.9105
납니다	-10.911
▁지상	-10.9117
▁사랑의	-10.9119
▁웅웅	-10.912
▁백성들	-10.912
들만	-10.9122
日	-10.9122
▁염증	-10.9123
있습니다	-10.9124
▁빡	-10.9124
▁자기를	-10.9124
▁생기면	-10.9127
▁오늘의	-10.9128
▁재혼	-10.9128
스피	-10.913
할수있	-10.9131
▁일들이	-10.9132
▁안심	-10.9136
▁수련	-10.9137
▁연인	-10.9138
▁벗어	-10.9139
▁해야지	-10.914
▁일각	-10.9143
3">	-10.9145
▁뉴욕	-10.9148
▁자율	-10.915
▁어딜	-10.915
▁관해서	-10.915
겸	-10.9151
▁주민들	-10.9152
▁쌓여	-10.9158
▁충동	-10.916
▁듣지	-10.9163
▁빠졌	-10.9163
중입니다	-10.9164
▁태도를	-10.9165
▁배치	-10.9166
▁않은데	-10.9172
▁발목	-10.9172
▁기뻐	-10.9173
▁바른	-10.9176
▁2001	-10.9181
세의	-10.9182
▁상대가	-10.9183
▁음성	-10.9183
▁답답한	-10.9187
▁웬	-10.919
▁St	-10.9191
▁누구에게	-10.9192
▁후배	-10.9193
개혁	-10.9193
▁소주	-10.9195
깁니다	-10.9196
들어가	-10.9196
▁목이	-10.9201
▁스트레스가	-10.9201
▁대체로	-10.9204
▁헉	-10.9206
망이	-10.9208
유정	-10.9211
▁쓰기	-10.9211
▁다리가	-10.9212
▁뒤집어	-10.9222
▁되면서	-10.9224
▁보내주	-10.9225
▁가능할까요	-10.9226
하였으며	-10.9227
아침	-10.9227
▁소식을	-10.9227
속으로	-10.9229
떼	-10.9231
▁고급	-10.9234
적으로는	-10.9237
〉	-10.9237
▁2)	-10.9239
▁인하여	-10.9242
▁조성	-10.9243
▁막내	-10.9243
▁이탈리아	-10.9243
▁육체	-10.9247
▁혜택	-10.9249
▁죄책감	-10.925
▁제주도	-10.9252
졌고	-10.9253
▁그러던	-10.9259
▁해고	-10.9261
▁형상	-10.9262
날이	-10.9262
▁일어서	-10.9265
나갈	-10.927
▁사로잡	-10.9274
▁심리적	-10.9275
▁식품	-10.9279
▁창업	-10.9279
▁벽에	-10.9279
▁호기심	-10.928
▁사람입니다	-10.928
조차도	-10.928
▁그러시	-10.928
▁긁	-10.9283
▁자국	-10.9284
▁무너지	-10.9284
▁그림자	-10.9286
▁잘못이	-10.9289
▁욕설	-10.9291
▁올립니다	-10.9292
그럴	-10.9293
▁대전	-10.9294
▁모래	-10.9297
찜	-10.9298
▁지나고	-10.9301
쪽에서	-10.9307
▁감싸	-10.9307
▁잘하고	-10.931
▁가구	-10.9311
▁여기는	-10.9311
제의	-10.9312
퉁	-10.9313
하자고	-10.9314
▁횡	-10.9316
대고	-10.9322
▁잡히	-10.9326
▁그곳에	-10.9326
▁주어진	-10.9329
▁관하여	-10.933
▁소금	-10.9332
소송	-10.9333
▁상황은	-10.9333
▁담보	-10.9334
▁메이	-10.9335
▁의사가	-10.9336
▁이야기는	-10.9337
▁좋아하고	-10.9338
▁내공	-10.934
▁야당	-10.9344
▁실업	-10.935
학기	-10.9352
▁귀를	-10.9352
▁......	-10.9354
▁웃음을	-10.9354
▁이해하고	-10.9357
▁호소	-10.9357
저도	-10.9358
▁아랫	-10.9359
기구	-10.9359
▁올린	-10.9362
▁귀가	-10.9362
民	-10.9364
▁떠오르	-10.9365
▁비참	-10.9366
▁id	-10.9374
▁만들어진	-10.9374
▁드렸	-10.9375
▁좌절	-10.9376
▁ᄉᄇ	-10.9376
▁그렇군요	-10.9377
▁앞으로도	-10.9377
生	-10.9379
▁많았다	-10.9379
▁질문드립니다	-10.938
셀	-10.9382
ly	-10.9384
▁싸웠	-10.9385
▁느낀	-10.9388
대장	-10.9388
▁종류의	-10.9389
▁말씀하시	-10.9389
▁즐거움	-10.9389
덩	-10.939
▁발생한	-10.939
▁도둑	-10.9394
잡고	-10.9397
댄	-10.9398
있을	-10.9398
▁과목	-10.9399
▁자식이	-10.9399
싸움	-10.94
▁노릇	-10.9405
▁당시의	-10.9405
▁인수	-10.9406
▁있잖아	-10.9409
멘트	-10.9409
갔습니다	-10.9412
었으며	-10.9413
▁기본적인	-10.9416
그랬	-10.9416
128	-10.9416
▁어떡하	-10.9417
엿	-10.9417
▁자료를	-10.9419
▁들어올	-10.9419
三	-10.9419
▁줬	-10.9422
▁필요로	-10.9425
테니까	-10.9426
든가	-10.9428
▁온라인	-10.9428
▁들었어요	-10.9429
▁소원	-10.9431
▁병이	-10.9431
▁증권	-10.9431
음악	-10.9432
▁모른	-10.9433
▁현재는	-10.9437
▁힘듭니다	-10.9437
▁....	-10.9438
▁콧	-10.9438
▁주부	-10.9439
▁짧	-10.944
▁것이기	-10.9442
▁부채	-10.9443
▁누구보다	-10.9443
▁하셨는데	-10.9445
▁물에	-10.9445
▁Y	-10.9447
▁먹어도	-10.9448
▁소음순	-10.9454
▁없으며	-10.9454
▁바라보았다	-10.9458
키로	-10.946
▁미치는	-10.9462
▁해가	-10.9462
콩	-10.9462
▁한때	-10.9463
집이	-10.9468
▁불안한	-10.9468
▁못하면	-10.9472
등을	-10.9474
▁친권	-10.9474
▁열었다	-10.9476
▁피곤하	-10.9477
병이	-10.9478
▁오로지	-10.948
해져서	-10.9481
ers	-10.9481
령이	-10.9482
▁따뜻	-10.9482
▁개정	-10.9484
▁쏘	-10.9487
ci	-10.9489
▁비유	-10.9489
덴	-10.9492
▁여자애	-10.9492
▁형이	-10.9494
톨	-10.9494
▁보면은	-10.9494
▁법을	-10.9495
▁탈모	-10.9496
▁없었어요	-10.9496
▁1)	-10.9498
▁어렵게	-10.9501
~1	-10.9501
펄	-10.9503
▁쓴다	-10.9504
▁여학생	-10.9506
▁남기	-10.951
▁장식	-10.9511
▁좋겠어	-10.9512
▁경우에도	-10.9512
어로	-10.9514
궐	-10.9516
이렇게	-10.9517
▁다니면서	-10.9517
전문	-10.9525
090	-10.9529
▁필요는	-10.953
▁어머니께서	-10.953
▁충족	-10.9531
듣	-10.9533
▁수립	-10.9533
▁요약	-10.9535
적도	-10.9535
단의	-10.9538
▁표준	-10.9539
▁엄격	-10.954
▁형편	-10.9541
ᄏᄏᄏᄏᄏᄏᄏ	-10.9543
▁고전	-10.9543
▁위험한	-10.9544
▁정부는	-10.9544
타고	-10.9544
해주시	-10.9545
▁텍스트	-10.9546
▁보낼	-10.9546
▁채로	-10.9549
▁제국	-10.9551
▁노출	-10.9554
▁터져	-10.9555
▁쌓아	-10.9556
으니까요	-10.9556
미는	-10.956
▁느꼈다	-10.9562
넹	-10.9562
279	-10.9562
▁폴	-10.9562
▁간호사	-10.9563
有	-10.9567
▁멈춰	-10.9568
▁메시지	-10.9568
▁영화를	-10.9568
▁드리고	-10.957
▁애매	-10.9573
▁나타내	-10.9578
생활을	-10.9578
▁눈은	-10.9578
▁용돈	-10.958
▁시작하는	-10.9583
하므로	-10.9583
▁취재	-10.9584
보여	-10.9587
▁한국에서	-10.9589
~~~~	-10.9591
마마	-10.9593
▁그녀에게	-10.9593
▁식민지	-10.9594
?</	-10.9595
할게요	-10.9596
▁꿈꾸	-10.9597
▁심장이	-10.9597
▁상태를	-10.9598
공사	-10.9599
▁인권	-10.9601
유진	-10.9602
▁허벅지	-10.9602
▁이스라엘	-10.9604
▁시내	-10.9606
운다	-10.9606
▁침대에	-10.9608
나도	-10.9608
▁보입니다	-10.9611
▁모르겠는데	-10.9611
▁괜	-10.9615
해야지	-10.9616
▁치우	-10.9617
있어서	-10.9618
아뇨	-10.9618
▁세포	-10.9623
▁조합	-10.9624
셨나요	-10.9627
▁인공	-10.9627
▁늦은	-10.9629
▁기본적으로	-10.9633
▁혐의	-10.9634
▁멍청	-10.9635
▁그랬다	-10.9638
▁32	-10.9639
▁지은	-10.9639
▁채택	-10.9641
▁체육	-10.9642
▁며느리	-10.9646
▁안주	-10.9646
띠	-10.9647
▁왜냐면	-10.9648
▁소외	-10.9648
▁정성	-10.9649
주며	-10.965
▁알려져	-10.9652
▁직장인	-10.9652
▁그때부터	-10.9652
거니	-10.9654
위원	-10.9656
▁잊고	-10.9656
방으로	-10.966
▁저번	-10.966
겠느냐	-10.9661
부끄러워	-10.9662
둥이	-10.9664
▁아아	-10.9664
▁포함한	-10.9665
야할지	-10.9666
▁자격증	-10.9666
▁도서관	-10.9666
▁쌍꺼풀	-10.9668
▁생겼다	-10.9672
▁샘	-10.9673
▁관계는	-10.9676
▁음주	-10.9678
▁근로자	-10.968
▁─	-10.9684
▁저보고	-10.9684
▁감시	-10.9685
놀이	-10.9685
민이	-10.9688
▁1999	-10.9691
王	-10.9692
룰	-10.9692
▁떨어	-10.9693
▁보고서	-10.9693
▁남들이	-10.9693
▁공부도	-10.9694
▁외롭	-10.9696
▁개성	-10.9697
▁못했던	-10.9698
나면	-10.9699
ill	-10.97
관은	-10.9701
▁두렵	-10.9701
▁코가	-10.9701
뺨	-10.9703
▁항공	-10.9703
▁염려	-10.9703
▁꺾	-10.9704
▁관해	-10.9705
ell	-10.9706
▁방에서	-10.971
전략	-10.9715
▁자신은	-10.9717
▁언덕	-10.9719
▁팀장	-10.972
▁데이트	-10.9721
▁그리구	-10.9721
ma	-10.9722
▁옹	-10.9724
▁대기업	-10.9727
▁매수	-10.9727
▁암튼	-10.9728
▁약한	-10.9728
세찬	-10.9729
스티	-10.973
▁싶으면	-10.9731
▁않겠다	-10.9732
▁사회생활	-10.9733
▁고르	-10.9733
▁돌아다니	-10.9734
▁보관	-10.9735
▁툭	-10.9738
▁충분한	-10.9739
▁산부인과	-10.974
이어서	-10.9742
▁지나가는	-10.9744
▁만나게	-10.9744
일어나	-10.9746
세력	-10.9747
▁선호	-10.975
▁단기	-10.9751
▁아버지를	-10.9752
▁입증	-10.9753
▁무시하고	-10.9753
▁어딘가	-10.9754
▁궁금	-10.9757
370	-10.9758
▁생리를	-10.976
..!	-10.9764
157	-10.9764
▁기간이	-10.9765
▁백성	-10.9765
▁베트남	-10.9769
▁대답을	-10.9769
먹을	-10.977
컴	-10.9771
▁계약을	-10.9772
▁쟤	-10.9773
희수	-10.9775
여보세요	-10.9778
▁불면증	-10.9778
경영	-10.9779
▁다녀오	-10.9779
▁겁나	-10.9781
순간	-10.9782
▁깨어	-10.9782
▁남자를	-10.9782
▁아주머니	-10.9782
▁느끼게	-10.9783
것만	-10.9784
▁아직은	-10.9785
▁얹	-10.9785
▁주장을	-10.9786
올라	-10.9787
▁상식	-10.9788
딜	-10.9788
▁이해를	-10.9789
때가	-10.979
드린	-10.9795
▁잡혀	-10.9796
▁마셔	-10.9797
▁영웅	-10.9801
▁번씩	-10.9802
▁가져오	-10.9802
▁앉는다	-10.9803
▁있네요	-10.9804
▁피부가	-10.9806
▁일주일에	-10.9808
▁나란히	-10.9809
▁글자	-10.9811
▁않는다면	-10.9812
사고	-10.9812
ac	-10.9814
▁유치	-10.9814
▁사용할	-10.9814
▁가량	-10.9816
보려고	-10.982
▁위원장	-10.9821
▁바쁜	-10.9822
▁없던	-10.9822
▁없구요	-10.9823
▁2004	-10.9824
▁성숙	-10.9826
▁말아요	-10.9831
▁타이	-10.9831
▁장치	-10.9833
▁용기를	-10.9833
▁불안하고	-10.9834
▁바지	-10.9834
250	-10.9836
▁살게	-10.9837
▁여긴	-10.9839
뜩	-10.9839
양이	-10.984
▁칼을	-10.984
all	-10.9841
▁중요성	-10.9842
▁양심	-10.9843
대상	-10.9843
▁등과	-10.9844
▁re	-10.9845
▁연봉	-10.9847
▁1980	-10.9851
body	-10.9851
▁유도	-10.9852
▁때의	-10.9852
▁성추행	-10.9853
옵	-10.9855
▁그다지	-10.9857
▁미군	-10.9857
되었습니다	-10.9857
하는건	-10.9858
▁몇번	-10.9858
▁힘든데	-10.9859
치며	-10.986
▁몰랐다	-10.986
▁그쵸	-10.9862
▁맞은	-10.9862
▁표현을	-10.9864
▁살아남	-10.9865
▁있으므로	-10.9866
▁테니	-10.987
할까봐	-10.9872
▁체크	-10.9872
▁미래에	-10.9874
공업	-10.9874
▁그랬더니	-10.9876
hi	-10.9882
▁않나	-10.9882
비아	-10.9887
▁독특한	-10.9891
▁::	-10.9893
▁안타깝	-10.9894
뜸	-10.9894
▁필요하	-10.9894
▁엄마와	-10.9895
▁유치원	-10.9901
스러웠	-10.9901
▁깊게	-10.9901
▁마시는	-10.9902
▁생각하시	-10.9904
거고	-10.9908
▁--	-10.9918
▁인물이	-10.9919
▁충돌	-10.9919
▁전후	-10.992
▁좋아지	-10.9922
쁘	-10.9925
▁이따	-10.9926
▁않으	-10.9928
▁예외	-10.9928
돕	-10.9928
ine	-10.993
▁한심하	-10.9931
▁되나	-10.9932
▁엎	-10.9933
▁아래로	-10.9933
resp	-10.9933
▁필요할	-10.9934
▁무게	-10.9934
절차	-10.9936
▁책이	-10.9937
▁=	-10.9939
▁이겨내	-10.994
젤	-10.9942
내서	-10.9945
▁만나기	-10.9947
▁숨겨	-10.9947
인줄	-10.9948
하기에	-10.9948
▁웃었다	-10.9949
▁박근혜	-10.9952
▁아닐까요	-10.9954
▁재발	-10.9957
▁치열	-10.9958
▁1997	-10.9959
▁맑	-10.9963
▁육아	-10.9963
▁하루도	-10.9963
겄	-10.9965
▁자기는	-10.9966
으루	-10.9967
▁싸우고	-10.9967
▁이쪽	-10.9969
▁압류	-10.9971
▁늙은	-10.9971
▁멀어	-10.9972
싹	-10.9974
호는	-10.9976
art	-10.9976
▁놈들	-10.9977
▁천하	-10.9978
뭇	-10.9985
▁며	-10.9986
▁심심	-10.9987
▁많을	-10.9993
022	-10.9995
▁납부	-10.9995
컥	-10.9995
억원	-10.9998
▁웨	-11
기준	-11.0001
▁믿지	-11.0002
맞아	-11.0004
▁울음	-11.0006
▁앤	-11.0006
▁네트워크	-11.0006
▁광대	-11.0008
것같아	-11.0012
▁학생들이	-11.0016
▁맥락	-11.0017
▁있느냐	-11.0019
빨	-11.002
▁너무나도	-11.0023
청구	-11.0024
▁신세	-11.0025
東	-11.0026
▁확실하게	-11.0027
▁감옥	-11.0027
▁않다는	-11.0027
▁e	-11.003
▁집주인	-11.0031
례를	-11.0034
神	-11.0036
na	-11.0036
▁주변에서	-11.0037
▁덧붙	-11.0038
▁우울하고	-11.0041
▁누워있	-11.0041
▁질문이	-11.0041
▁g	-11.0047
▁버릇	-11.0048
260	-11.005
▁데는	-11.0051
Q	-11.0052
빨리	-11.0052
한텐	-11.0052
▁교통사고	-11.0054
▁불안감	-11.0056
하구요	-11.0056
크림	-11.0057
▁가능성을	-11.0058
있으면	-11.0059
▁이루어진	-11.006
▁외로움	-11.0061
▁선생님은	-11.0061
▁않네요	-11.0066
했으니	-11.0067
셔도	-11.0067
옆	-11.0068
재희	-11.0068
드러	-11.0069
▁v	-11.0069
▁매년	-11.0069
▁미쳐	-11.007
▁걸고	-11.007
▁그후	-11.0079
▁부상	-11.008
▁되었어요	-11.0081
979	-11.0081
밍	-11.0085
▁비극	-11.0086
▁다를	-11.0087
▁놀아	-11.0089
▁일어	-11.009
▁인재	-11.0092
▁(2	-11.0095
궤	-11.0095
아냐	-11.0096
▁트라우마	-11.01
▁파는	-11.0105
자본	-11.0106
▁되죠	-11.0107
▁끊고	-11.0107
▁상업	-11.0109
▁그만두고	-11.011
▁작전	-11.0113
▁통계	-11.0113
450	-11.0113
▁요구하는	-11.0115
▁바꿀	-11.0117
▁내야	-11.0119
▁죽지	-11.0119
낀	-11.012
▁스승	-11.0123
콤	-11.0126
129	-11.0129
▁직장에	-11.0131
kg	-11.0132
▁일단은	-11.0132
▁증세	-11.0133
주신	-11.0138
▁에게	-11.0139
▁빨래	-11.0139
▁노력해	-11.0141
▁관할	-11.0142
der	-11.0143
▁평양	-11.0144
▁뿌	-11.0144
▁탑	-11.0145
▁어디가	-11.0152
he	-11.0152
▁얻었	-11.0153
셧	-11.0153
부리	-11.0155
ᄐ	-11.0155
)))	-11.0158
▁먼지	-11.016
▁투표	-11.0161
조금	-11.0163
갱	-11.0163
▁답이	-11.0167
▁너희들	-11.0167
▁나가면	-11.0167
▁자책	-11.0168
ew	-11.0168
르트	-11.0169
▁남자의	-11.0171
ff	-11.0172
말로	-11.0174
가격	-11.0175
▁하이	-11.0176
▁받으려	-11.0176
▁엠	-11.0177
▁아버지와	-11.0178
▁남쪽	-11.0181
님들	-11.0185
▁하시는데	-11.0187
▁그땐	-11.0187
▁말씀하셨	-11.0189
롬	-11.0191
▁배제	-11.0191
씨를	-11.0195
▁곧바로	-11.0195
달이	-11.0196
▁공원	-11.0197
얻	-11.0202
▁길에	-11.0202
▁연차	-11.0202
▁기원	-11.0205
만원이	-11.0206
▁반짝	-11.0207
▁반응을	-11.0208
▁스물	-11.0213
▁사십	-11.0214
▁비즈니스	-11.0214
▁너랑	-11.0215
▁작품을	-11.0217
▁동거	-11.0218
▁연예인	-11.0219
바로	-11.022
▁완벽	-11.0221
들이다	-11.0221
▁근본	-11.0221
▁문화적	-11.0222
▁엄마도	-11.0223
▁향한	-11.0224
보호	-11.0224
▁셀	-11.0225
▁민감	-11.0227
▁어머니를	-11.0227
750	-11.0232
▁문서	-11.0233
▁잎	-11.0233
▁이천십	-11.0234
▁질문에	-11.0239
▁정확	-11.0239
▁바란다	-11.024
▁건강한	-11.0242
▁비명	-11.0244
▁죽으면	-11.0244
만큼은	-11.0245
▁눈치를	-11.0245
▁했죠	-11.0245
▁걸릴	-11.0246
▁괜찮을	-11.0246
라구요	-11.0247
▁소심	-11.0248
▁갔습니다	-11.0248
주시고	-11.0248
▁설사	-11.0249
▁떠들	-11.025
뭔	-11.025
▁앞의	-11.0253
▁분위기가	-11.0254
320	-11.0257
률이	-11.0257
▁어리석	-11.0258
▁어이없	-11.026
▁빚을	-11.0261
구먼	-11.0262
▁괴롭히	-11.0266
▁가난한	-11.0267
뜨리	-11.0269
자들을	-11.0269
▁효력	-11.027
색을	-11.0271
de	-11.0273
▁대학을	-11.0273
▁쑥	-11.0274
▁1998	-11.0276
▁화장품	-11.0276
해보니	-11.0278
▁좋아해	-11.0278
하루	-11.0278
▁인정받	-11.0279
부딪	-11.0282
no	-11.0284
▁서둘러	-11.0284
▁비용은	-11.0285
▁이행	-11.0285
▁가격이	-11.0286
▁농민	-11.0287
은새	-11.0291
▁맞게	-11.0292
ᄒᄒᄒ	-11.0293
058	-11.0295
▁투명	-11.0295
▁보여주고	-11.03
었으나	-11.0301
▁알려진	-11.0302
▁확산	-11.0302
▁밤새	-11.0305
▁굵	-11.0305
▁짐을	-11.031
▁경찰에	-11.0311
▁불가	-11.0312
▁두통	-11.0312
900	-11.0313
꿇	-11.0314
▁믿는	-11.0315
▁평등	-11.0319
▁ᅲᅲᅲᅲ	-11.032
▁이슈	-11.0321
▁이직	-11.0321
▁지역에	-11.0323
생산	-11.0323
▁유혹	-11.0326
▁모두들	-11.0327
910	-11.0329
크는	-11.033
▁일본인	-11.0332
켰	-11.0332
▁기업이	-11.0334
▁어때요	-11.0335
▁소리로	-11.0341
▁되자	-11.0343
▁필수	-11.0343
▁입시	-11.0344
▁적당히	-11.0345
됬	-11.0346
▁재산을	-11.035
▁밭	-11.0351
950	-11.0351
이라니	-11.0352
▁목숨	-11.0352
기엔	-11.0353
사님	-11.0353
▁차리	-11.0354
▁하나만	-11.0355
▁낯선	-11.0355
▁좋겠네요	-11.0358
▁나요	-11.036
분들이	-11.036
▁어머니와	-11.0363
아내	-11.0363
▁불편한	-11.0364
▁아내의	-11.0364
▁하기도	-11.0368
트라	-11.0369
▁끝날	-11.0369
▁자꾸만	-11.037
▁얘기하는	-11.0371
았고	-11.0373
▁가까워	-11.0373
자들에게	-11.0374
▁다시는	-11.0375
▁입장에서는	-11.0377
▁같다는	-11.0378
▁잠자리	-11.038
▁얼굴은	-11.038
으리라	-11.0382
▁▶	-11.0382
그라	-11.0382
섹	-11.0382
했죠	-11.0383
▁시간도	-11.0386
▁허리가	-11.0391
▁회사는	-11.0396
▁귀엽	-11.0397
▁정서	-11.0398
있게	-11.04
▁저축	-11.0401
▁일관	-11.0403
녜	-11.0403
▁사원	-11.0411
▁괜찮다	-11.0412
▁얼마든지	-11.0417
上	-11.042
ver	-11.0421
▁서로를	-11.0421
ab	-11.0422
지혜	-11.0422
▁되었을	-11.0424
▁웃는다	-11.0426
▁자퇴	-11.0428
119	-11.043
▁후기	-11.043
970	-11.043
▁않다고	-11.0431
하기를	-11.0432
▁관련하여	-11.0432
▁회계	-11.0432
▁했으나	-11.0434
▁지역의	-11.0435
▁보냈다	-11.0436
했음	-11.0439
통이	-11.044
재산	-11.044
▁상대적으로	-11.0441
윽	-11.0443
버리면	-11.0445
▁변호사님	-11.0445
첨	-11.0446
▁연체	-11.0446
마트	-11.0449
▁낮에	-11.0449
▁제정	-11.045
랄까	-11.045
ge	-11.0451
▁몸은	-11.0452
▁어우	-11.0455
▁오래된	-11.0456
▁귀신	-11.0461
삿	-11.0462
▁대우	-11.0466
사옵니다	-11.0467
▁한결	-11.0469
▁무덤	-11.0469
『	-11.047
▁자취	-11.0471
▁정체성	-11.0472
▁몬	-11.0472
▁못했습니다	-11.0475
▁심해서	-11.0477
되었으며	-11.0477
줍니다	-11.0478
爲	-11.0479
▁체력	-11.048
▁경쟁력	-11.0483
▁짱	-11.0483
▁작업을	-11.0483
부로	-11.0484
本	-11.0486
▁임무	-11.0486
▁초래	-11.0488
▁있었어	-11.0489
▁세상의	-11.0491
▁멀쩡	-11.0491
인사	-11.0492
▁본능	-11.0492
▁솔직	-11.0494
신경	-11.0494
▁비서	-11.0495
▁책은	-11.0496
986	-11.0499
▁떠올리	-11.0501
▁비타민	-11.0505
▁신념	-11.0505
▁죄를	-11.0505
▁자식들	-11.051
▁조국	-11.0512
850	-11.0513
▁유사	-11.0514
▁포장	-11.0515
▁우연	-11.0515
▁권유	-11.0516
▁의자에	-11.0518
경찰	-11.052
▁어른이	-11.0524
▁비평	-11.0524
▁차림	-11.0524
똑	-11.0525
179	-11.0526
▁사고가	-11.0526
▁잘라	-11.0528
▁앉아있	-11.0532
▁유전	-11.0533
▁여유가	-11.0534
▁무심	-11.0538
▁사춘기	-11.0541
▁걸리는	-11.0543
▁가지는	-11.0543
▁했는데요	-11.0545
▁한꺼번에	-11.0546
핵	-11.0546
▁심사	-11.0547
▁마주치	-11.0548
▁이들이	-11.0548
▁하고요	-11.0548
▁귀에	-11.0548
▁골프	-11.0548
▁님이	-11.055
불만이야	-11.0551
▁그곳에서	-11.0552
자로서	-11.0556
영은	-11.0556
다니는	-11.0558
ᅵ	-11.0562
▁잃어	-11.0562
▁ᄏᄏᄏᄏᄏᄏᄏᄏᄏᄏᄏᄏᄏ	-11.0564
▁모욕	-11.0566
▁밤이	-11.0571
▁들어왔다	-11.0571
▁친구의	-11.0571
▁나오는데	-11.0572
스럽다	-11.0572
▁불쾌	-11.0574
▁공허	-11.0576
곱	-11.0576
▁임명	-11.058
▁연락도	-11.0581
냐면	-11.0583
펜	-11.0584
▁이루고	-11.0584
똥	-11.0587
다녀	-11.0587
▁초월	-11.0592
▁들어가면	-11.0592
▁예비	-11.0592
▁군데	-11.0593
아저씨	-11.0594
▁분양	-11.0596
▁출입	-11.0596
▁강력	-11.0597
▁있으시	-11.0597
Y	-11.0598
▁내렸다	-11.0599
▁눕	-11.0599
흘	-11.0601
▁연금	-11.0603
▁해당하는	-11.0604
바지	-11.0607
깔	-11.061
▁실체	-11.061
▁마자	-11.061
▁자신과	-11.0612
079	-11.0613
▁없었는데	-11.0614
▁위하	-11.0617
그룹	-11.0619
▁멀어지	-11.0619
▁인력	-11.0621
▁부당	-11.0623
걸음	-11.0627
▁떠날	-11.0628
▁지식을	-11.063
▁기가	-11.0632
4">	-11.0633
했었다	-11.0636
▁.../	-11.0636
천만원	-11.0637
릇	-11.0638
▁잡는	-11.0638
▁해결할	-11.0644
▁끝나면	-11.0647
▁선생님들	-11.0647
▁했는지	-11.0648
▁싫다고	-11.0649
▁싶기도	-11.065
(?)	-11.0653
960	-11.0654
▁아동	-11.0654
▁말씀하신	-11.0654
▁춥	-11.0656
▁한정	-11.0656
듯한	-11.0656
▁참을	-11.0657
▁키워드	-11.066
▁인형	-11.0661
▁돌아오는	-11.0663
▁아니지	-11.0667
270	-11.067
▁갈아	-11.0671
117	-11.0672
▁이른	-11.0672
▁아버지께서	-11.0673
▁지내는	-11.0675
▁북한의	-11.0677
▁탈출	-11.0677
981	-11.0678
189	-11.0679
▁대단	-11.0681
야말로	-11.0683
▁쓰러지	-11.0684
▁33	-11.0684
▁사랑하고	-11.0687
980	-11.0687
▁얼음	-11.0689
▁근처에	-11.0693
▁할머니가	-11.0694
▁흡수	-11.0695
048	-11.0696
어떤	-11.0697
▁따라가	-11.0698
▁거짓말을	-11.0699
▁쓰면	-11.0701
노래	-11.0701
▁마카님께서	-11.0702
금융	-11.0706
338	-11.0706
▁얘기하고	-11.0707
▁선생님께서	-11.0708
▁비틀	-11.071
▁주인이	-11.071
이었지만	-11.0712
정숙	-11.0713
▁도덕적	-11.0714
▁이데올로기	-11.0717
▁사라지고	-11.0717
▁흐르	-11.0718
▁마카님도	-11.0719
▁답을	-11.072
360	-11.0723
▁세상은	-11.0723
또는	-11.0723
멀	-11.0723
▁방향을	-11.0724
▁애써	-11.0724
▁삶은	-11.0727
▁달고	-11.0728
▁애초에	-11.0729
▁보편적	-11.073
▁버릴	-11.0734
▁사냥	-11.0734
▁정신적으로	-11.0736
표정	-11.0738
론의	-11.0738
▁내린	-11.0739
▁겪고	-11.0745
169	-11.0747
▁돌아가는	-11.0747
▁아이에게	-11.0748
▁썰	-11.075
▁직후	-11.075
발전	-11.0755
▁한숨을	-11.0756
▁절개	-11.0757
ce	-11.0758
▁실수를	-11.076
했나	-11.0761
▁테스트	-11.0763
관계를	-11.0764
땅	-11.0765
論	-11.0766
▁교과서	-11.0769
qu	-11.077
▁농업	-11.077
▁계좌	-11.0776
▁아플	-11.0777
051	-11.0779
▁상해	-11.078
▁너무너무	-11.0781
▁맡아	-11.0782
▁헤어진	-11.0787
▁생각하기	-11.0789
▁이상은	-11.0789
▁눈앞에	-11.0789
:“	-11.079
▁하자고	-11.079
강박	-11.0793
▁마다	-11.0793
▁선고	-11.0794
▁왔어	-11.0797
▁얘기는	-11.0799
▁떼어	-11.0799
▁사주	-11.08
▁허리를	-11.08
▁잃은	-11.0806
▁잘못을	-11.0808
▁삼아	-11.0809
▁해라	-11.0809
▁질환	-11.0809
▁목적을	-11.0812
自	-11.0812
▁봐주	-11.0814
▁숙제	-11.0818
▁양육	-11.0819
▁일어난다	-11.0819
▁있으면서	-11.0822
▁비상	-11.0822
부모님	-11.0822
▁배신	-11.0823
믿	-11.0824
▁단점	-11.0825
▁더듬	-11.0826
▁나라가	-11.0827
▁대학에	-11.0828
▁엄청나게	-11.0831
▁여보	-11.0832
▁미안하다	-11.0832
▁찔	-11.0834
▁사정을	-11.0837
하더라도	-11.0837
▁폭언	-11.0839
▁예컨대	-11.0844
길이	-11.0845
▁마카님은	-11.0847
▁신혼	-11.0849
▁부장	-11.0849
▁놀라운	-11.085
▁불리는	-11.085
▁친구한테	-11.085
▁상대로	-11.0852
▁솔직하게	-11.0853
▁황금	-11.086
▁나왔는데	-11.0863
▁ᅳ	-11.0863
165	-11.0863
▁탕	-11.0866
▁섭취	-11.0866
수있는	-11.0868
볼게요	-11.087
▁발로	-11.087
▁콧대	-11.0872
▁그러기	-11.0875
▁싸워	-11.0875
420	-11.0875
▁연애를	-11.0875
家	-11.0876
칫	-11.0879
▁대륙	-11.0879
▁차에	-11.088
▁이런거	-11.0882
▁식구들	-11.0882
누가	-11.0882
▁찾아내	-11.0884
▁안되서	-11.089
▁축제	-11.089
▁하였	-11.089
▁발생하는	-11.0891
▁부른다	-11.0892
▁이르는	-11.0893
되네요	-11.0894
▁희망을	-11.0894
公	-11.0898
地	-11.0898
깡	-11.0901
▁대단하	-11.0901
▁뿐이었다	-11.0902
▁떨어졌	-11.0902
것들	-11.0905
▁물어봐	-11.0907
어린	-11.0916
▁아이고	-11.0918
▁즐겁게	-11.0919
▁때면	-11.092
369	-11.092
"/>	-11.092
▁공항	-11.0921
BC	-11.0921
그만	-11.0923
현실	-11.0926
▁신의	-11.0928
▁일만	-11.0932
▁애들은	-11.0936
▁아름다움	-11.0938
▁간단히	-11.0942
▁그놈	-11.0943
▁할려고	-11.0945
▁보여준다	-11.0945
▁용기가	-11.0947
▁바람을	-11.095
▁멋지	-11.0953
▁창피	-11.0956
▁이용해	-11.0956
▁갔다가	-11.0958
뿔	-11.096
▁먹는다	-11.0961
했더니	-11.0961
▁삽	-11.0963
▁행위를	-11.0965
▁창작	-11.0967
▁정도를	-11.0972
▁짚	-11.0974
▁바라보며	-11.0974
▁들으면	-11.0975
▁눈썹	-11.0976
▁치유	-11.0976
▁38	-11.0976
적이며	-11.0978
▁응답	-11.0979
▁모시고	-11.0981
059	-11.0981
▁유전자	-11.0983
▁혐오	-11.0983
▁떨어지고	-11.0986
빡	-11.0986
▁사과를	-11.0986
▁말했습니다	-11.0987
▁학생입니다	-11.0989
▁정착	-11.099
려구요	-11.0992
▁싶지만	-11.0994
▁저러	-11.0996
!”	-11.0997
낫	-11.0998
미연	-11.0999
▁개념을	-11.1001
▁한마디로	-11.1002
찔	-11.1002
뉘	-11.1003
▁비슷하	-11.1003
▁모릅니다	-11.1004
▁필요성	-11.1004
▁거리가	-11.1004
▁당하고	-11.1006
뛰	-11.1007
▁이사를	-11.1008
▁입장이	-11.1009
▁척추	-11.101
▁남친이	-11.101
▁뻗	-11.1011
하더니	-11.1012
550	-11.1013
▁드려	-11.1013
▁방을	-11.1014
▁펜	-11.1015
연합	-11.1016
▁순간에	-11.1018
불면	-11.1019
form	-11.1024
▁엥	-11.1024
들여	-11.1024
쟈	-11.1025
gt	-11.103
230	-11.103
▁부문	-11.1033
▁아쉽	-11.1038
ᄎ	-11.1038
욜	-11.1038
▁기호	-11.1039
▁근원	-11.104
ᄌ	-11.1041
▁화학	-11.1043
▁담긴	-11.1044
해온	-11.1045
und	-11.1045
▁갖추	-11.1048
▁게임을	-11.105
▁적당한	-11.105
144	-11.105
▁했으면	-11.1055
▁치과	-11.1056
결정	-11.1056
중독	-11.1056
▁답답해	-11.1057
▁찾아와	-11.1059
▁보존	-11.106
▁누군가에게	-11.106
빤	-11.1061
년까지	-11.1061
▁36	-11.1063
▁겁이	-11.1065
▁있으신	-11.1066
▁에스	-11.1068
▁시청자	-11.1069
핸	-11.1071
한테도	-11.1071
▁불렀다	-11.1072
age	-11.1072
▁안면	-11.1074
즉	-11.1075
쓰고	-11.1076
061	-11.1076
▁두달	-11.1078
▁건조	-11.1079
▁대출을	-11.1082
릅니다	-11.1083
AP	-11.1084
▁마른	-11.1087
한테는	-11.1088
▁블랙	-11.1088
▁아이들의	-11.1089
▁오시	-11.109
est	-11.109
▁관객	-11.1091
▁지친	-11.1091
▁식탁	-11.1092
984	-11.1092
▁대접	-11.1092
▁파견	-11.1093
해준	-11.1097
보를	-11.1097
닷	-11.1098
▁백제	-11.1099
▁생생	-11.1103
▁말리	-11.1105
▁자유를	-11.1106
▁유기	-11.1107
해야만	-11.111
껍	-11.1113
▁노려보	-11.1114
▁와중에	-11.1114
▁올바른	-11.1116
▁얘기도	-11.1118
▁분위기를	-11.112
069	-11.1123
▁180	-11.1123
▁감고	-11.1124
▁갑니다	-11.1125
▁한편으로는	-11.1129
985	-11.1133
론은	-11.1136
▁소리에	-11.1136
▁조작	-11.1138
시절	-11.1139
▁병사들	-11.1139
▁마냥	-11.1142
▁시체	-11.1142
▁국방	-11.1143
▁초조	-11.1144
ke	-11.1146
978	-11.1147
▁고추	-11.1148
▁부끄럽	-11.1149
셋	-11.1149
▁무려	-11.1149
▁가치관	-11.1155
945	-11.1156
▁동생은	-11.1157
되요	-11.1158
▁힘으로	-11.116
모두	-11.116
했잖아	-11.1161
▁누리	-11.1162
▁시사	-11.1164
▁묻고	-11.1165
139	-11.1165
----------------	-11.1167
▁혈액	-11.1167
▁추측	-11.1169
놈이	-11.1172
▁같아서요	-11.1173
▁굿	-11.1173
▁나라에서	-11.1175
▁리더십	-11.1175
▁살펴	-11.1179
ᅦ	-11.118
340	-11.1182
▁가벼운	-11.1185
▁남에게	-11.1186
▁말해주	-11.1187
▁거냐	-11.1189
▁찾아서	-11.119
스레	-11.1192
뭐야	-11.1192
▁퇴원	-11.1193
840	-11.1194
▁안쓰	-11.1197
▁사회가	-11.1198
▁칸	-11.1199
▁언니는	-11.12
iv	-11.1201
148	-11.1201
▁바뀐	-11.1203
▁괜찮다고	-11.1203
▁쓰여	-11.1203
▁한의원	-11.1204
▁비전	-11.1208
▁해결책	-11.1209
▁받으며	-11.1212
▁정식	-11.1212
ho	-11.1212
▁연말	-11.1216
더라구	-11.1217
971	-11.1218
▁배우고	-11.1219
025	-11.122
그것	-11.122
▁간접	-11.1221
몰라	-11.1222
358	-11.1224
▁세운	-11.1224
▁생명을	-11.1225
▁직장생활	-11.1225
di	-11.1226
▁배웠	-11.1228
영희	-11.1231
액을	-11.1235
▁부정적	-11.1235
아주	-11.1235
바이	-11.1235
▁안녕하십니까	-11.1236
▁창출	-11.1236
▁담임	-11.1239
▁사랑한다	-11.1242
▁막히	-11.1243
ᅮᅲ	-11.1243
5">	-11.1246
쑤	-11.1247
줄게	-11.1248
▁홈페이지	-11.1249
▁천재	-11.1249
▁관련이	-11.1249
▁특정한	-11.1254
▁뜯어	-11.1255
▁지연	-11.1255
▁벌떡	-11.1255
▁머릿속	-11.1256
▁아들을	-11.1257
웃겨	-11.1258
지않고	-11.126
▁생활이	-11.1262
▁몸무게	-11.1264
었을까	-11.1265
▁나가야	-11.1265
▁이러다	-11.1266
▁알았어요	-11.1267
▁문이	-11.1267
▁찾았	-11.1267
같아	-11.1269
▁메모	-11.1269
▁이르기까지	-11.127
▁한창	-11.1271
▁앞트임	-11.1272
▁무력	-11.1272
▁맞을	-11.1272
▁의자	-11.1277
049	-11.1278
▁조카	-11.1278
▁코끝	-11.1278
콤플렉스	-11.1279
▁필요없	-11.128
미리	-11.128
▁무겁	-11.128
lo	-11.1281
되거나	-11.1284
116	-11.1286
義	-11.1287
047	-11.1287
▁서른	-11.1288
▁보고싶	-11.1288
▁짤	-11.1289
▁끄덕	-11.1291
▁주장하는	-11.1292
▁내리고	-11.1293
렸던	-11.1293
▁성공한	-11.1294
▁콘	-11.1294
▁데에	-11.1295
▁상태에	-11.1295
▁주저앉	-11.1297
▁즐겨	-11.1297
948	-11.1298
▁목소리를	-11.13
oc	-11.1302
▁임시	-11.1302
▁사고를	-11.1304
▁데이터	-11.1306
▁남한	-11.1307
▁성경	-11.1309
▁불빛	-11.1309
▁제조	-11.1313
끌	-11.1317
▁교류	-11.1318
하셔야	-11.1319
었으니	-11.132
▁않는데	-11.1322
▁못해요	-11.1322
057	-11.1322
▁불가능한	-11.1322
세포	-11.1324
▁날개	-11.1325
▁현관	-11.1325
154	-11.1328
▁고수	-11.133
줬는데	-11.133
▁땀이	-11.1331
준다고	-11.1331
기여도	-11.1331
▁지루	-11.1334
▁우울증이	-11.1337
990	-11.1338
펠	-11.1339
감정	-11.1339
아프	-11.1339
▁가사	-11.1341
982	-11.1341
▁보였	-11.1343
▁판사	-11.1343
▁낯	-11.1344
뜻	-11.1344
▁존재가	-11.1345
▁손실	-11.1346
▁조상	-11.1346
겠는데	-11.1348
렉	-11.135
▁시작해서	-11.136
▁외출	-11.1361
280	-11.1361
▁다름이	-11.1363
740	-11.1365
▁원장	-11.1366
렛	-11.1367
▁소중하	-11.1369
샌	-11.137
▁탐구	-11.137
운계	-11.1373
▁황당	-11.1374
870	-11.1375
▁그랬어요	-11.1377
▁회피	-11.1377
셈	-11.1377
하듯이	-11.1377
▁부디	-11.1378
▁모습에	-11.1378
뻐	-11.1378
▁가스	-11.1379
이야말로	-11.1382
▁버렸	-11.1384
▁세계에서	-11.1384
▁범인	-11.1385
영재	-11.1386
▁업무를	-11.1388
The	-11.1388
▁진짜로	-11.1389
감독	-11.1391
▁사랑은	-11.1392
860	-11.1392
▁여자친구가	-11.1394
▁적게	-11.1395
▁뛰어나	-11.1397
알았어	-11.1398
▁추세	-11.1398
▁채용	-11.1399
▁정수	-11.1403
▁사이로	-11.1404
것처럼	-11.1405
▁아니요	-11.1408
▁헤어	-11.1409
▁중에는	-11.141
댔다	-11.141
주의의	-11.1411
▁헤어졌	-11.1412
현상	-11.1413
주의자	-11.1414
▁있거나	-11.1415
▁수백	-11.1415
▁잔소리	-11.1417
차례	-11.1418
▁너머	-11.1421
▁쇼핑	-11.1422
▁인생은	-11.1422
▁차이를	-11.1424
▁발라	-11.1424
134	-11.1425
▁짓는	-11.1427
▁재산분할	-11.1427
▁자리잡	-11.1428
▁막혀	-11.143
▁류	-11.143
▁전체적으로	-11.1435
▁미치겠	-11.1435
란다	-11.144
▁겠	-11.1443
▁울면서	-11.1444
045	-11.1447
웃으며	-11.1447
▁했구요	-11.1447
▁시달리	-11.1449
▁그거는	-11.145
▁시력	-11.1453
▁여태	-11.1454
▁바가	-11.1455
▁지출	-11.1459
▁인생에	-11.146
졌는데	-11.1463
▁의학	-11.1464
▁미국에	-11.1465
▁힘내요	-11.1468
▁진단을	-11.147
▁살해	-11.1472
▁살아갈	-11.1475
▁피아노	-11.1477
▁압력	-11.1478
▁사람이다	-11.1481
▁치는	-11.1482
▁이어지	-11.1483
▁지워	-11.1484
▁〈	-11.1484
▁기업들	-11.1485
▁물음	-11.1485
▁프로그램을	-11.1485
▁미안하	-11.1485
▁마카	-11.1487
▁빚이	-11.1487
▁환영	-11.1488
▁좁은	-11.1488
이번	-11.149
3%	-11.1491
여보	-11.1491
▁거니까	-11.1492
철학	-11.1493
▁알면서도	-11.1494
▁주고받	-11.1494
218	-11.1496
ber	-11.1497
쩌	-11.1498
▁무엇일까요	-11.1499
▁부러워	-11.1501
▁쓸모	-11.1502
▁열쇠	-11.1503
▁아시는	-11.1503
역사	-11.1504
사무소	-11.1504
▁첫번째	-11.1505
법으로	-11.1505
봐서	-11.1505
수당	-11.1506
▁궁극적	-11.1507
▁촌	-11.1507
▁두번	-11.1508
▁똑바로	-11.1511
월까지	-11.1514
받지	-11.1517
▁진화	-11.1518
▁원인을	-11.1519
▁식사를	-11.1525
▁앞두고	-11.1526
▁서로의	-11.1526
▁불렀	-11.1526
▁아프리카	-11.1528
▁여친	-11.1529
▁토닥토닥	-11.1529
퀴	-11.153
▁저장	-11.1531
▁이놈	-11.1532
개월이	-11.1532
하늘	-11.1534
219	-11.1534
이익	-11.1534
▁관료	-11.1535
▁쯤	-11.1536
▁쪽을	-11.1537
▁돋	-11.154
▁물어봤	-11.154
▁동반	-11.1541
▁회담	-11.1542
▁일어났다	-11.1542
▁코스	-11.1542
▁지치	-11.1542
▁여동생	-11.1543
052	-11.1543
튜	-11.1545
▁느끼지	-11.1545
168	-11.1546
▁사람인	-11.1546
▁피를	-11.1551
▁없죠	-11.1552
▁궁금해서	-11.1552
▁생긴다	-11.1553
▁비디오	-11.1553
▁1995	-11.1554
▁자유롭게	-11.1555
▁구해	-11.1557
▁의혹	-11.1557
▁억제	-11.1558
▁뭔가를	-11.1559
할수록	-11.1563
해보자	-11.1563
▁됐어	-11.1563
▁온통	-11.1563
엇는데	-11.1563
▁목격	-11.1565
▁확인할	-11.1565
▁위로가	-11.1567
357	-11.157
▁쓸쓸	-11.157
깐	-11.1572
650	-11.1573
▁조그만	-11.1573
▁안쪽	-11.1574
880	-11.1574
▁삭	-11.1575
그러니까	-11.1576
▁존재한다	-11.1577
▁짓고	-11.158
▁북쪽	-11.158
▁있어서는	-11.1581
▁//	-11.1582
사관	-11.1586
▁되며	-11.1586
▁전형	-11.1586
▁기재	-11.1587
430	-11.1588
▁축소	-11.1588
▁영광	-11.159
증권	-11.1592
▁낳고	-11.1593
053	-11.1593
었나	-11.1594
얼굴	-11.1594
▁매일매일	-11.1595
460	-11.16
▁농촌	-11.16
▁부를	-11.1601
440	-11.1601
▁냉장고	-11.1601
▁적지	-11.1601
▁경찰이	-11.1602
▁2005	-11.1603
▁아이들에게	-11.1607
▁어려서	-11.1611
▁체질	-11.1613
▁말없이	-11.1614
▁계절	-11.1615
하기만	-11.1615
돼서	-11.1617
▁늦어	-11.1618
▁개가	-11.1619
하셨습니다	-11.1622
▁있단	-11.1625
▁키스	-11.1626
▁복합	-11.1627
▁달린	-11.1627
▁예뻐	-11.1628
신다면	-11.1628
▁샤워	-11.1628
집단	-11.1629
왠	-11.1629
而	-11.1633
일본	-11.1634
하셨어요	-11.1635
▁지니	-11.1636
▁저보다	-11.1636
○○	-11.1638
▁고문	-11.1639
힌다	-11.1639
▁일체	-11.1639
▁상상력	-11.1641
직장	-11.1642
▁어느정도	-11.1642
▁급하게	-11.1643
▁알지만	-11.1646
890	-11.1646
하든	-11.1647
▁강도	-11.1648
▁세종	-11.1648
▁날은	-11.1649
▁손바닥	-11.1649
660	-11.165
▁중인	-11.1651
▁발음	-11.1651
▁하셨어요	-11.1651
자식	-11.1651
▁올리고	-11.1652
벙	-11.1654
330	-11.1655
▁항목	-11.1658
▁분할	-11.1658
▁연상	-11.1659
▁이리저리	-11.1659
▁민사	-11.166
▁술집	-11.166
거같은데	-11.166
▁느껴지는	-11.1662
▁말씀드렸	-11.1669
인생	-11.1672
때문	-11.1678
054	-11.1678
▁내일은	-11.1679
▁프레	-11.1681
▁뱉	-11.1683
▁버리는	-11.1686
하더라구요	-11.1686
▁잡은	-11.1687
▁기술을	-11.1695
부모	-11.1696
▁이러면	-11.1696
하자면	-11.1696
ᅲᅲᅲᅲ	-11.1697
수준	-11.1698
▁이런저런	-11.17
▁못합니다	-11.17
380	-11.17
▁서울시	-11.17
▁쾌	-11.1701
▁살리	-11.1701
▁부어	-11.1703
▁렌즈	-11.1705
▁많아지	-11.1705
▁정지	-11.1709
서비스	-11.1709
시쯤	-11.1709
▁해설	-11.1711
▁부활	-11.1711
▁지역에서	-11.1712
피아	-11.1712
▁대목	-11.1712
틈	-11.1713
▁짐승	-11.1713
▁간단	-11.1714
▁전체를	-11.1716
▁1000	-11.172
씌	-11.1721
▁그러게	-11.1721
▁34	-11.1721
공간	-11.1722
▁경기도	-11.1723
▁승인	-11.1724
눈물	-11.1725
▁부하	-11.1728
가봐	-11.173
사람은	-11.173
▁종목	-11.173
▁for	-11.1733
켓	-11.1734
▁분명한	-11.1735
냅	-11.1739
▁닦아	-11.1739
탐	-11.1739
820	-11.1739
▁성적이	-11.1741
6">	-11.1742
▁하루를	-11.1743
시키려	-11.1743
史	-11.1745
ve	-11.1748
▁견딜	-11.1748
▁체포	-11.1749
359	-11.1752
▁시선이	-11.1753
▁세계에	-11.1753
▁동화	-11.1754
▁대인관계	-11.1754
▁겉으로	-11.1755
▁얻고	-11.1759
▁음악을	-11.176
라는데	-11.176
248	-11.176
옥림	-11.1761
▁지가	-11.1762
▁인간을	-11.1763
물어	-11.1763
▁바탕	-11.1767
▁짧게	-11.1767
▁철저히	-11.1769
▁오리	-11.177
었구요	-11.1771
▁`	-11.1772
968	-11.1773
348	-11.1774
▁레이저	-11.1776
앤	-11.1778
▁하기로	-11.1779
▁총리	-11.1779
▁사는게	-11.178
▁묻는	-11.1781
▁국회의원	-11.1781
▁세우고	-11.1782
▁호감	-11.1783
텍	-11.1786
▁친구들이랑	-11.1787
▁변해	-11.1788
▁말자	-11.1789
▁동안에	-11.1789
▁감성	-11.1789
▁학자	-11.179
▁앉았다	-11.1791
자네	-11.1791
▁지속되	-11.1792
720	-11.1792
▁조심스럽게	-11.1793
▁힘드시	-11.1793
969	-11.1794
▁말로는	-11.1796
같은거	-11.1796
▁냉정	-11.1797
▁권리를	-11.1798
천원	-11.1799
▁수집	-11.1799
▁여덟	-11.18
쩔	-11.1801
stage	-11.1801
▁않으며	-11.1802
▁어이가	-11.1803
▁고맙다	-11.1804
308	-11.1806
400	-11.1808
엮	-11.181
앞에	-11.181
▁엄마에게	-11.1812
▁앞을	-11.1812
▁뜨고	-11.1813
▁담고	-11.1813
▁허무	-11.1814
149	-11.1814
혀서	-11.1816
▁친구들도	-11.1817
▁종업원	-11.1818
▁종일	-11.1818
▁종사	-11.182
▁사건의	-11.182
▁알면	-11.1821
!!!!!!	-11.1822
▁매입	-11.1823
▁중시	-11.1829
056	-11.1829
▁죽겠	-11.183
▁번쩍	-11.1834
▁하려면	-11.1834
▁어떡하죠	-11.1834
▁개월	-11.1835
正	-11.1835
▁편의점	-11.1835
자고싶다	-11.1835
부턴	-11.1836
▁길은	-11.1837
선거	-11.1838
▁나이는	-11.1841
ᄆ	-11.1844
977	-11.1847
▁물고기	-11.1847
▁찍은	-11.1849
▁반면에	-11.1851
봅시다	-11.1851
▁계층	-11.1851
왔어요	-11.1852
983	-11.1855
스코	-11.1856
▁내어	-11.1856
973	-11.1858
셨고	-11.1859
▁폐지	-11.1862
▁피어	-11.1863
▁생각하며	-11.1864
▁선택을	-11.1864
▁반응이	-11.1864
428	-11.1865
▁형태의	-11.1867
153	-11.1869
▁해봐	-11.187
박사	-11.187
▁전날	-11.1872
▁언젠가는	-11.1873
▁쥐어	-11.1873
▁자신에	-11.1873
▁정면	-11.1873
팍	-11.1875
▁어렵고	-11.1876
▁무릎을	-11.1876
▁ᄏᄏᄏᄏᄏᄏᄏᄏᄏᄏᄏᄏᄏᄏ	-11.1877
▁ᄒᄒᄒᄒ	-11.1879
▁코드	-11.1881
961	-11.1882
▁것이니	-11.1884
▁마음속에	-11.1884
▁키우고	-11.1886
心	-11.1886
댔	-11.1887
BS	-11.1888
▁웃으면서	-11.1889
▁정도면	-11.189
▁당신에게	-11.189
▁연설	-11.1891
결혼	-11.1891
830	-11.1894
그때	-11.1894
▁아울러	-11.1895
▁그토록	-11.1896
끊	-11.1899
▁뵙	-11.19
쓱	-11.1903
:...(	-11.1904
▁달라진	-11.1905
▁400	-11.1907
▁호르몬	-11.191
▁더럽	-11.1912
뽀	-11.1914
▁도망가	-11.1914
▁겪어	-11.1915
▁정상적인	-11.1916
▁000	-11.1916
▁체결	-11.1917
▁붕괴	-11.1919
▁감상	-11.1919
냉	-11.1921
▁서비스를	-11.1921
▁생태	-11.1922
대표	-11.1922
▁이루어	-11.1923
▁해야할지	-11.1924
▁개최	-11.1925
▁평가를	-11.1929
▁꾀	-11.193
▁지난해	-11.1931
▁이용한	-11.1933
▁거기다	-11.1936
▁분야에서	-11.1937
946	-11.194
▁언제부터	-11.1942
▁사회를	-11.1942
▁목적이	-11.1943
▁이용하여	-11.1944
▁치킨	-11.1945
뷰	-11.1947
SO	-11.1947
▁뭔데	-11.1952
였을	-11.1954
▁밥도	-11.1956
社	-11.1958
▁자존감이	-11.1959
해봐	-11.1959
▁충격을	-11.196
먹었	-11.1963
☞	-11.1963
▁도박	-11.1965
▁앗	-11.1965
▁소멸	-11.1966
▁컨	-11.1966
046	-11.1966
▁두어	-11.1968
두통	-11.1972
▁시간과	-11.1973
▁다니던	-11.1973
▁피곤해	-11.1976
▁칼로	-11.1981
레스	-11.1981
▁당뇨	-11.1984
▁존재하지	-11.1986
해볼	-11.1988
줬다	-11.1989
▁판정	-11.1989
허선생	-11.1989
▁아픕니다	-11.1991
▁원장님	-11.1991
해보고	-11.1991
몇	-11.1993
낄	-11.1993
지말고	-11.1994
▁춤을	-11.1994
쁜	-11.1995
고생	-11.1995
▁증언	-11.1995
▁계십니다	-11.1995
▁반찬	-11.1996
▁식의	-11.1996
▁초등학생	-11.1996
▁아니라면	-11.1997
국민	-11.1997
▁계세요	-11.1998
▁학교가	-11.1999
▁때문인지	-11.1999
▁소문이	-11.1999
하셨다	-11.2
099	-11.2001
sion	-11.2001
949	-11.2001
▁변명	-11.2002
봤다	-11.2004
▁죽기	-11.2005
967	-11.2008
163	-11.2013
▁신경이	-11.2015
▁어지럽	-11.2016
▁죽었다	-11.2016
▁뚝	-11.2016
▁이유도	-11.2018
▁돌보	-11.2018
▁얘가	-11.2022
하길	-11.2026
210	-11.2026
▁간절	-11.2027
▁햇빛	-11.2028
역시	-11.2028
▁1996	-11.2029
▁반복되	-11.2029
▁달리는	-11.2029
▁감수	-11.203
버렸습니다	-11.2032
▁대항	-11.2033
▁중에서도	-11.2034
▁극장	-11.2035
ial	-11.2036
▁갔을	-11.2036
▁후로	-11.2038
▁제약	-11.2041
▁살아온	-11.2042
▁이미지를	-11.2042
▁분열	-11.2043
▁코를	-11.2044
▁밑에서	-11.2046
학년때	-11.2052
▁말았	-11.2053
▁늦었	-11.2054
▁기운이	-11.2055
걸요	-11.2056
▁살아왔	-11.2056
▁서방	-11.2056
▁답장	-11.2056
▁찌르	-11.206
▁주위를	-11.2065
說	-11.2066
▁스페인	-11.2066
▁이끌	-11.2066
라면서	-11.2067
▁경고	-11.2068
▁지었다	-11.2069
▁고민하고	-11.2069
▁올라와	-11.2072
네여	-11.2073
▁호랑이	-11.2073
▁당선	-11.2074
▁재무	-11.2075
161	-11.2078
컵	-11.2079
▁서울에	-11.208
▁인상을	-11.2081
▁금액이	-11.2088
▁하필	-11.209
▁평범	-11.209
유미	-11.2091
셔요	-11.2093
나간다	-11.2094
▁진학	-11.2094
▁회생	-11.2098
▁방치	-11.2099
▁질문입니다	-11.2101
랍	-11.2104
▁항문	-11.2104
ag	-11.2108
▁기구	-11.2113
www	-11.2113
152	-11.2113
드릴께요	-11.2114
▁촉진	-11.2116
봤어요	-11.2119
▁정체	-11.212
랏	-11.2121
▁취한	-11.2122
976	-11.2123
▁감자	-11.2123
▁정신병	-11.2123
▁살던	-11.2124
▁원금	-11.2128
▁백화점	-11.213
▁추구하는	-11.213
▁살지	-11.2133
▁그걸로	-11.2135
▁정책을	-11.2137
▁해주시	-11.2137
▁여성이	-11.214
▁이랬	-11.2141
520	-11.2144
듀	-11.2144
▁도망치	-11.2146
▁포인트	-11.2147
▁표면	-11.2148
▁증여	-11.215
▁마땅	-11.2152
972	-11.2153
▁세무	-11.2154
▁무언가를	-11.2156
▁싼	-11.2156
▁비용을	-11.2156
959	-11.2157
▁같으면	-11.2158
067	-11.2158
▁아빠랑	-11.2159
▁바꾸어	-11.2159
▁상대방의	-11.216
쾅	-11.2161
▁추운	-11.2161
하더라	-11.2161
▁단단	-11.2162
▁이해하는	-11.2162
9">	-11.2162
똘	-11.2163
▁아빠한테	-11.2164
일날	-11.2164
ud	-11.2164
▁기울이	-11.2164
사정	-11.2166
▁변제	-11.2167
▁되겠다	-11.2168
▁햇살	-11.2171
▁해본	-11.2171
162	-11.2171
政	-11.2172
▁완벽한	-11.2175
▁격려	-11.2176
▁인정하고	-11.2177
수화기	-11.2177
년생	-11.2178
▁섹스	-11.2179
▁제품을	-11.2179
▁악마	-11.2179
볼까요	-11.2181
▁전설	-11.2181
된다면	-11.2187
▁나섰다	-11.2189
▁신성	-11.2192
▁혼인신고	-11.2194
▁신선	-11.2196
이게	-11.2196
▁대부분이	-11.2198
여성	-11.2199
활동을	-11.22
▁다투	-11.22
▁대선	-11.2201
▁그때까지	-11.2201
▁위원회	-11.2201
▁활성화	-11.2203
975	-11.2206
▁지키고	-11.2207
▁완화	-11.2207
ou	-11.2208
▁양성	-11.2211
▁매도	-11.2211
▁안나오	-11.2213
▁심각하게	-11.2215
▁직원이	-11.2215
▁읽을	-11.2219
▁조명	-11.2221
▁밑으로	-11.2222
▁생성	-11.2223
▁꿈에	-11.2223
▁다름	-11.2224
▁턱이	-11.2225
▁새삼	-11.2225
▁증상은	-11.2226
▁저리	-11.2226
062	-11.2228
▁역사의	-11.2228
▁경우를	-11.2233
▁스스로가	-11.2233
▁be	-11.2234
▁사촌	-11.2235
▁일어나면	-11.2235
▁별다른	-11.2236
770	-11.2236
▁확률이	-11.2237
pr	-11.2238
▁완전한	-11.2238
▁글씨	-11.224
▁결혼여부	-11.2245
▁차가운	-11.2245
▁보건	-11.2246
▁의미하는	-11.2249
▁않나요	-11.225
▁클럽	-11.2251
▁봉투	-11.2252
시켜야	-11.2253
▁의견이	-11.2253
행복	-11.2253
▁획득	-11.2254
▁담겨	-11.2254
▁가끔은	-11.2256
▁전화번호	-11.2257
▁있었으면	-11.2257
▁체중	-11.2257
▁잡을	-11.2257
경우	-11.2258
이었기	-11.2258
▁지나서	-11.2258
땜에	-11.2259
풋	-11.2259
▁생각했던	-11.226
958	-11.2262
보았다	-11.2265
언제	-11.2266
하는것도	-11.2267
▁방식을	-11.2269
고민	-11.227
730	-11.2271
▁싶었는데	-11.2271
▁빅	-11.2274
962	-11.2275
▁고작	-11.2275
▁취향	-11.2276
▁친구들에게	-11.2277
▁오셨	-11.2277
ti	-11.2278
▁오류	-11.228
이야기	-11.2281
▁이루어졌	-11.2281
if	-11.2282
▁소개해	-11.2282
▁마인드	-11.2282
7">	-11.2283
▁전쟁을	-11.2283
▁단정	-11.2283
▁방지	-11.2287
▁범주	-11.2288
주시면	-11.2289
▁재미있는	-11.2289
▁화살	-11.229
▁없어졌	-11.229
▁뒷모습	-11.2292
▁유발	-11.2292
470	-11.2294
▁나타났	-11.2294
mm	-11.2295
主	-11.2296
▁현실이	-11.2298
▁해체	-11.2299
▁최저	-11.2299
▁멈추고	-11.23
▁협조	-11.2301
진국	-11.2303
▁심판	-11.2305
▁개념이	-11.2307
▁간단하게	-11.2308
▁미성년자	-11.2308
썼	-11.2309
▁텅	-11.2309
인것	-11.231
▁이벤트	-11.2311
▁→	-11.2311
▁아깝	-11.2311
▁손톱	-11.2311
▁갖춘	-11.2312
▁보완	-11.2314
▁이날	-11.2314
▁드러난	-11.2315
▁밤을	-11.2315
171	-11.2316
했을까	-11.2317
법원	-11.2318
▁37	-11.2319
▁변동	-11.2319
127	-11.232
▁내뱉	-11.232
▁화려한	-11.2322
▁자녀수	-11.2327
넨	-11.2328
480	-11.2328
▁제공하는	-11.2331
▁양상	-11.2331
▁향기	-11.2332
▁공부하는	-11.2334
▁사장이	-11.2334
▁양육비를	-11.234
▁가르침	-11.2341
▁성분	-11.2341
▁동정	-11.2341
▁않았으면	-11.2342
▁받았고	-11.2342
▁존재를	-11.2342
▁시작할	-11.2343
▁풀려	-11.2344
▁씻고	-11.2345
▁결혼연차	-11.2348
줍	-11.2352
마니	-11.2353
▁들어가고	-11.2354
마디	-11.2355
렸고	-11.2355
▁유독	-11.2357
▁이빨	-11.2357
있던	-11.2358
▁나타내는	-11.2358
▁손상	-11.2359
760	-11.2359
▁침해	-11.2359
131	-11.2363
행동	-11.2365
▁위안	-11.2366
▁외치	-11.2368
▁것이죠	-11.2369
▁기쁘	-11.2369
힘들	-11.237
잘못	-11.2373
540	-11.2373
640	-11.2375
ta	-11.2375
▁의식을	-11.2377
▁하러	-11.2377
▁놓인	-11.2378
▁저절로	-11.238
느낌	-11.2382
▁기억을	-11.2383
▁전신	-11.2385
▁따져	-11.2386
▁그럼요	-11.2388
▁잠자	-11.239
▁서류를	-11.2391
▁뱀	-11.2392
▁왜곡	-11.2394
▁주저	-11.2396
바다	-11.2398
▁가족들이	-11.2401
▁장악	-11.2402
▁중요하지	-11.2403
▁아홉	-11.2404
▁낭비	-11.2404
친구들	-11.2406
▁후에는	-11.2406
▁고발	-11.2407
그러나	-11.2407
▁찾아왔	-11.2413
▁돌아갈	-11.2414
성형	-11.2416
278	-11.2418
339	-11.2418
▁있네	-11.2419
▁(3)	-11.2419
8">	-11.242
쿨	-11.2421
▁저두	-11.2423
▁빠지는	-11.2423
068	-11.2424
▁싸우는	-11.2424
▁ᄅᄋ	-11.2428
▁절실	-11.2433
자연	-11.2434
▁간다고	-11.2435
▁빌리	-11.2436
▁애쓰	-11.2437
▁쌓이	-11.2438
▁증거가	-11.2438
▁댁	-11.2439
▁멜	-11.2439
▁큰소리	-11.244
▁비웃	-11.2443
하였는데	-11.245
▁길로	-11.2451
her	-11.2453
▁특성을	-11.2453
▁패턴	-11.2453
▁열려	-11.2456
▁적극적인	-11.2462
▁여러가지	-11.2464
377	-11.2466
나갔다	-11.2466
▁눈매교정	-11.2469
▁더더욱	-11.2469
혐	-11.2473
sh	-11.2476
064	-11.2477
int	-11.248
갯	-11.248
▁치밀	-11.2481
VNP	-11.2481
▁살다가	-11.2481
▁미래의	-11.2481
▁나누고	-11.2482
계속	-11.2485
▁시작하면	-11.2488
예술	-11.2488
▁you	-11.2489
▁어떨	-11.249
780	-11.2492
▁유튜브	-11.2492
▁이윽고	-11.2492
꿔	-11.2492
▁버티고	-11.2495
거린다	-11.2496
▁자격이	-11.2497
▁영국의	-11.2498
290	-11.2499
▁중요하	-11.2499
▁하늘이	-11.25
124	-11.2501
▁하루가	-11.2501
▁코로나	-11.2505
진우	-11.2505
▁하십니다	-11.2506
▁조언을	-11.2507
▁데려가	-11.2507
071	-11.2507
▁내려다보	-11.2508
▁의지가	-11.2509
▁의회	-11.2512
제국	-11.2513
239	-11.2515
▁또래	-11.2516
▁링	-11.252
▁생선	-11.2521
▁방식이	-11.2523
❤	-11.2524
라든가	-11.2524
▁대통령의	-11.2525
▁상담받	-11.2526
해주신	-11.2527
▁번이나	-11.2528
▁틀린	-11.2528
▁덥	-11.253
▁모시	-11.2531
▁상관없이	-11.2531
영환	-11.2538
▁벗겨	-11.2539
▁크리스마스	-11.2544
▁풀고	-11.2546
▁움직여	-11.2547
아아아	-11.2548
957	-11.2548
경험	-11.2549
대며	-11.2549
시키지	-11.2553
▁―	-11.2554
밑	-11.2558
렸는데	-11.2559
ence	-11.2559
▁Ch	-11.2559
엄마가	-11.256
어지러움	-11.2562
▁준비해	-11.2562
▁사법	-11.2563
▁이곳에서	-11.2563
▁땜에	-11.2564
▁해봤	-11.2569
▁주관	-11.2572
▁만들어서	-11.2573
145	-11.2573
▁이루어지는	-11.2574
읽	-11.2576
066	-11.2576
뮤	-11.2576
스턴	-11.2578
였기	-11.2578
▁신랑이	-11.2578
▁성관계	-11.2579
▁점검	-11.258
▁맞나요	-11.2581
▁냈다	-11.2582
▁합의금	-11.2582
▁부인이	-11.2582
▁했거든요	-11.2582
))))	-11.2584
▁돌아왔	-11.2585
▁지고	-11.2586
▁하든	-11.2587
♥	-11.2588
▁여사	-11.259
▁성공을	-11.2593
164	-11.2594
▁새겨	-11.2596
안녕하세요	-11.2597
▁제법	-11.2597
▁같구요	-11.2598
트라우마	-11.26
갸	-11.26
쁠	-11.26
▁여러분의	-11.26
▁각각의	-11.2601
▁수준이	-11.2603
▁보살	-11.2603
▁사귀는	-11.2604
어른	-11.2605
▁확립	-11.2609
하잖아	-11.261
▁작동	-11.261
▁심리학	-11.2611
뵈	-11.2612
요즘	-11.2612
▁유교	-11.2613
▁테러	-11.2617
▁파티	-11.2618
947	-11.2619
680	-11.262
▁출생	-11.2621
▁나선	-11.2621
▁남편을	-11.2622
▁학업	-11.2622
▁돌아올	-11.2625
▁준비하고	-11.2626
▁궁금해	-11.2628
▁그것에	-11.2631
▁했기	-11.2632
세여	-11.2634
953	-11.2634
▁아니죠	-11.2635
▁시절에	-11.2635
▁것들은	-11.2637
▁1970	-11.2638
▁저쪽	-11.2638
토록	-11.2638
▁찾지	-11.2638
▁셈	-11.264
▁되찾	-11.264
▁객관적	-11.264
해주셔서	-11.2642
▁예언	-11.2645
▁본인은	-11.2646
▁이끌고	-11.2647
▁가봐야	-11.2648
151	-11.2649
▁외에도	-11.265
꺼에요	-11.2653
▁스무	-11.2655
▁무섭다	-11.2656
웰	-11.2656
▁일들을	-11.2658
▁향후	-11.2658
교정	-11.2658
228	-11.2659
▁싸울	-11.266
▁돌아가시	-11.2663
▁속상해	-11.2665
▁단독	-11.2666
▁한가지	-11.2667
▁일대	-11.2668
▁투입	-11.2668
▁죽이고	-11.2669
▁전통적인	-11.2671
▁이어서	-11.2671
▁고무	-11.2673
▁공작	-11.2673
▁자제	-11.2676
▁갖는다	-11.2678
뭘	-11.268
956	-11.2682
중심	-11.2682
to	-11.2682
▁친하게	-11.2685
등급	-11.2688
▁입맛	-11.269
▁즐겁	-11.269
버렸어요	-11.2694
뿐인	-11.2695
▁일으켜	-11.2697
만원씩	-11.2699
▁하거든요	-11.2702
951	-11.2702
▁일입니다	-11.2704
▁안받	-11.2704
▁적극	-11.2706
▁이슬람	-11.2706
▁바래요	-11.2706
▁아유	-11.2707
▁지치고	-11.2708
670	-11.2709
눌	-11.2711
0">	-11.2711
▁합쳐	-11.2712
▁시민들	-11.2712
▁찾아온	-11.2715
▁올리는	-11.2716
▁깎	-11.2716
리즘	-11.2717
ang	-11.2718
▁드네요	-11.2718
▁진입	-11.2719
▁설명해	-11.2723
▁내려놓	-11.2724
939	-11.2726
▁기적	-11.2726
▁시험을	-11.2726
以	-11.2727
▁좋아하지	-11.2728
ical	-11.2729
181	-11.2731
▁패배	-11.2732
▁가출	-11.2732
▁배울	-11.2734
▁설레	-11.2735
▁너에게	-11.2735
샘	-11.2737
063	-11.2737
▁느낀다	-11.2741
▁바와	-11.2742
▁생각해도	-11.2744
▁들리는	-11.2745
▁크리스	-11.2746
ich	-11.2747
▁계셨	-11.2748
길동	-11.2749
▁직접적인	-11.275
▁현실적으로	-11.2751
▁높아지	-11.2752
ant	-11.2753
▁걱정하지	-11.2753
▁이르러	-11.2754
▁갖지	-11.2754
▁정산	-11.2758
▁성기	-11.276
▁장르	-11.276
▁각오	-11.2761
▁모른다는	-11.2762
▁두개	-11.2766
▁받으러	-11.2766
마시고	-11.2769
▁해준	-11.277
▁배우는	-11.2771
툴	-11.2771
▁원천	-11.2774
▁대규모	-11.2774
▁되풀이	-11.2775
폴	-11.2776
▁다음주	-11.2777
엑	-11.2778
▁조건이	-11.278
▁재빨리	-11.2782
▁구제	-11.2784
셨던	-11.2784
얀	-11.2784
▁집안일	-11.2784
▁성과를	-11.2784
964	-11.2787
167	-11.2788
▁벌어진	-11.279
▁등기	-11.2791
▁소망	-11.2793
▁증인	-11.2793
미안	-11.2794
▁기준이	-11.2796
▁봤다	-11.28
▁발명	-11.2802
하냐고	-11.2802
놈들	-11.2804
▁셈이	-11.2806
????	-11.2807
▁반환	-11.281
봤지만	-11.2812
▁지나간	-11.2814
승현	-11.2814
짖	-11.2819
▁야구	-11.2822
▁점령	-11.2824
▁우편	-11.2827
349	-11.2828
269	-11.2828
세윤	-11.2829
▁현실에	-11.283
▁잔인	-11.2832
▁이제부터	-11.2833
580	-11.2833
▁윤곽	-11.2835
깜	-11.2837
▁혈관	-11.2838
▁어릴때	-11.2838
▁끝내고	-11.2838
▁수령	-11.2838
▁토끼	-11.2839
931	-11.2839
하거든요	-11.2841
▁배당	-11.2841
연애	-11.2842
▁듯했다	-11.2843
▁마르크스	-11.2844
공단	-11.2844
929	-11.2845
▁푼	-11.2846
필요	-11.2846
▁연구를	-11.2849
定	-11.2849
▁미스	-11.285
▁증오	-11.2852
▁말구	-11.2854
▁의뢰	-11.2855
419	-11.2856
963	-11.2863
하였던	-11.2863
▁계열	-11.2863
▁급한	-11.2866
▁젊은이들	-11.2867
▁나와요	-11.2869
▁남자애	-11.2869
냄새	-11.2871
되기도	-11.2871
▁채널	-11.2875
▁김정은	-11.2875
▁쫓겨	-11.2877
▁데려다	-11.288
▁두번째	-11.2882
368	-11.2882
▁이루어져	-11.2884
▁행동에	-11.2886
▁커플	-11.2886
▁목욕	-11.2888
147	-11.2889
▁그리워	-11.289
벤	-11.2892
▁간섭	-11.2892
났어	-11.2893
▁복음	-11.2893
▁저자	-11.2893
▁유대인	-11.2895
▁어떨까	-11.2896
냄	-11.2899
▁창고	-11.29
▁치르	-11.2902
었는데요	-11.2904
인들에게	-11.2905
▁노력하고	-11.2905
▁도무지	-11.2907
▁오토바이	-11.291
▁ᄃ	-11.2916
▁벤	-11.2918
▁키우는	-11.2919
▁기숙사	-11.2919
▁목에	-11.2922
▁분들도	-11.2923
▁철수	-11.2927
랩	-11.2928
▁삽입	-11.293
▁따르는	-11.293
▁무리가	-11.2931
▁스토리	-11.2931
▁무관	-11.2932
390	-11.2933
가봐요	-11.2933
114	-11.2935
▁남긴	-11.294
듣고	-11.2944
974	-11.2945
▁확인하고	-11.2946
▁깔끔	-11.2947
▁읽기	-11.2949
▁전화로	-11.295
▁기르	-11.2953
▁감안	-11.2954
▁드물	-11.2956
▁찾아볼	-11.2958
kr	-11.2959
▁현재까지	-11.2961
630	-11.2962
▁편안한	-11.2962
▁금액을	-11.2962
할아버지	-11.2962
▁누워서	-11.2963
▁남자와	-11.2964
▁견뎌	-11.2965
▁구절	-11.2965
용빈	-11.2965
▁보시면	-11.2966
▁시위	-11.2967
셨습니까	-11.297
▁한번만	-11.2972
▁걸어오	-11.2973
▁약물	-11.2973
▁간신히	-11.2974
▁특허	-11.2978
▁장비	-11.2979
▁편한	-11.298
▁남동생	-11.298
▁오빠는	-11.298
▁여름에	-11.2982
했었는데	-11.2982
▁진영	-11.2982
▁본격적으로	-11.2983
~!!	-11.2984
▁뜰	-11.2986
▁듯하다	-11.2986
▁연방	-11.2989
▁계시는	-11.2989
▁통상	-11.299
앉아	-11.2991
▁머릿속에	-11.2992
걱	-11.2992
570	-11.2993
▁가령	-11.2993
▁관절	-11.2994
노파	-11.2994
▁사건은	-11.2995
진희	-11.2996
▁있겠죠	-11.2999
▁탔	-11.3001
146	-11.3002
▁컵	-11.3002
▁친구들을	-11.3003
▁행운	-11.3003
952	-11.3003
▁작곡	-11.3003
▁여자와	-11.3004
버럭	-11.3004
▁부모의	-11.3008
▁지원을	-11.3008
가슴	-11.3011
ᄏᄏᄏᄏᄏᄏᄏᄏ	-11.3013
▁나아질	-11.3014
▁걔네	-11.3016
그렇지	-11.3017
▁없네	-11.3019
▁보이기	-11.302
▁120	-11.302
▁규범	-11.3022
▁껍질	-11.3023
▁상자	-11.3024
089	-11.3027
▁아니니까	-11.303
▁낫다	-11.3033
081	-11.3033
▁앓고	-11.3038
178	-11.304
▁그러네요	-11.304
•	-11.3041
▁예전에는	-11.3042
▁어려움을	-11.3043
▁끝나는	-11.3047
▁너네	-11.3049
▁얘기할	-11.3051
▁엇	-11.3051
▁1994	-11.3055
▁출현	-11.3057
au	-11.3057
▁문화를	-11.3058
▁사후	-11.3059
▁되니	-11.3062
▁일어나고	-11.3062
▁유엔	-11.3066
ca	-11.3066
▁동료들	-11.307
▁모르겟	-11.3072
머니	-11.3072
탓	-11.3074
▁먹고싶	-11.3075
▁근본적인	-11.3078
▁놀라서	-11.308
▁미국은	-11.3081
▁자해를	-11.3087
물질	-11.3088
▁검증	-11.3089
▁고소를	-11.3089
▁추워	-11.3089
정리	-11.309
클레	-11.309
▁트럭	-11.3094
▁면허	-11.3094
▁타자	-11.3094
년도에	-11.3095
▁저렴	-11.3098
▁해볼	-11.31
▁누군가를	-11.3104
▁바퀴	-11.3104
웨	-11.3106
▁잡았	-11.3106
141	-11.3108
▁걷어	-11.3109
▁한글	-11.3111
▁야간	-11.3113
일수록	-11.3115
km	-11.3117
▁1993	-11.3117
스케	-11.3117
▁결제	-11.3119
▁북한이	-11.312
▁영원한	-11.3122
▁나옵니다	-11.3124
▁살펴보면	-11.3126
▁무장	-11.3126
109	-11.3127
time	-11.3127
▁간부	-11.3129
배우	-11.3135
쌀	-11.3137
▁맡겨	-11.314
▁가능할	-11.3141
틸	-11.3142
원장	-11.3144
했구요	-11.3146
▁###	-11.3146
졌던	-11.3146
|	-11.3146
▁준다고	-11.3149
▁쓰게	-11.3151
국장	-11.3152
▁추적	-11.3152
싫다	-11.3152
▁st	-11.3152
▁어려웠	-11.3155
258	-11.3157
올리	-11.3158
▁고통이	-11.3159
▁끔찍	-11.316
125	-11.316
▁않으셨	-11.316
▁때리고	-11.3161
▁부모님의	-11.3161
▁제외한	-11.3162
▁혈압	-11.3163
▁운용	-11.317
966	-11.3171
▁부르고	-11.3171
수술을	-11.3176
▁관계로	-11.3176
저기	-11.3178
▁전경	-11.3179
174	-11.3179
▁중소기업	-11.318
▁연계	-11.3181
▁나눌	-11.3182
증후군	-11.3183
티브	-11.3183
▁만져	-11.3184
▁2010	-11.3186
▁관리를	-11.3186
▁지성	-11.3186
멍	-11.3188
▁남편에게	-11.3189
▁고독	-11.3192
▁치료가	-11.3192
기록	-11.3192
증상	-11.3196
▁출석	-11.3197
▁화제	-11.3198
▁눌	-11.3198
▁피할	-11.3203
원짜리	-11.3204
롭고	-11.3204
▁이루는	-11.3209
▁안돼요	-11.3209
▁만나지	-11.3209
곰	-11.321
연구원	-11.321
현재	-11.321
▁단일	-11.321
▁이런식으로	-11.3213
▁얘긴	-11.3214
잼	-11.3214
055	-11.3215
해설	-11.3216
941	-11.3216
▁쏘아	-11.3217
▁사람만	-11.3217
쌤	-11.3219
플레	-11.322
▁양보	-11.322
많은	-11.3221
▁부모님과	-11.3221
▁보리	-11.3223
▁@	-11.3223
▁시비	-11.3225
................	-11.3228
560	-11.323
▁얻기	-11.323
126	-11.3233
▁매몰	-11.3235
▁컴	-11.3236
▁2006	-11.3236
▁흑인	-11.3236
257	-11.3238
▁임마	-11.3239
▁실내	-11.324
530	-11.324
▁습관이	-11.3241
▁시키는	-11.3242
▁차마	-11.3243
▁시급	-11.3243
내일	-11.3246
주겠다고	-11.3246
078	-11.3247
▁왕자	-11.3259
▁우정	-11.326
▁작정	-11.3263
공화국	-11.3265
▁떨어질	-11.3265
▁직무	-11.3266
닫	-11.3267
▁자리가	-11.3267
▁보급	-11.3267
▁메뉴	-11.3269
▁핫	-11.327
▁본다면	-11.3271
344	-11.3271
954	-11.3274
▁거친	-11.3279
▁여건	-11.3281
휙	-11.3283
▁내역	-11.3284
아웃	-11.3286
pe	-11.3289
▁사용하고	-11.3291
▁마감	-11.3291
代	-11.3292
▁xx	-11.3292
▁전역	-11.3292
▁전체가	-11.3293
봤자	-11.3293
▁거잖아요	-11.3294
▁귀찮아	-11.3294
▁만다	-11.3294
▁꼼꼼	-11.3295
▁작고	-11.3297
▁병실	-11.3299
328	-11.33
보이는	-11.33
자산	-11.33
▁맞서	-11.3302
▁보다는	-11.3303
엌	-11.3303
when	-11.3305
▁글쓰기	-11.3305
▁2013	-11.3305
주머니	-11.3306
256	-11.3306
시작	-11.3308
▁인종	-11.3309
꼽	-11.3309
▁위원	-11.3309
구려	-11.331
▁재활	-11.3311
▁붙잡고	-11.3311
▁순수한	-11.3312
▁걷고	-11.3312
▁일본에서	-11.3314
▁부각	-11.3314
132	-11.3315
時	-11.3321
년대에	-11.3321
봤더니	-11.3323
▁생각해보면	-11.3323
▁돌아가셨	-11.3324
▁순식간에	-11.3327
▁남자입니다	-11.3327
마저도	-11.3328
▁같은거	-11.333
▁우물	-11.3331
▁가짜	-11.3331
▁인해서	-11.3332
▁아프지	-11.3333
▁공부하고	-11.3334
▁불편해	-11.3335
무역	-11.3337
▁대결	-11.3337
▁법원에	-11.334
들로부터	-11.3341
▁덮어	-11.3343
민혁	-11.3346
620	-11.3347
▁이번주	-11.3347
▁저하	-11.3348
▁아웃	-11.3348
▁집사람	-11.3349
했으니까	-11.3349
겠구나	-11.335
댄다	-11.3352
928	-11.3352
었음	-11.3353
」(	-11.3354
▁일방적으로	-11.3356
▁속성	-11.3356
▁·/	-11.3361
▁깎아	-11.3362
▁귀국	-11.3364
▁보충	-11.3364
▁생각하게	-11.3367
▁정리해	-11.337
▁뜻이다	-11.3371
부르	-11.3372
▁실정	-11.3372
▁이집트	-11.3372
▁소음	-11.3372
▁한강	-11.3376
▁세월이	-11.3377
대답	-11.3378
▁바라요	-11.3378
되었을	-11.3383
▁목표로	-11.3383
▁살았다	-11.3385
▁엘리베이터	-11.3387
▁지만	-11.3388
ism	-11.3389
▁열매	-11.339
▁싶었던	-11.339
▁줄여	-11.339
되어서	-11.3391
베이	-11.3392
졋	-11.3393
"/><	-11.3396
▁밝혔다	-11.3397
▁파이팅	-11.34
꼴	-11.3401
▁지붕	-11.3401
▁겨울에	-11.3401
못해	-11.3404
▁쌤	-11.3404
▁계기로	-11.3405
▁노력하는	-11.3405
▁짝사랑	-11.3407
▁%	-11.3408
▁쭈	-11.3412
物	-11.3413
▁근무를	-11.3413
▁물리치료	-11.3413
▁맘이	-11.3413
▁꿈은	-11.3415
▁독점	-11.3416
▁균	-11.3416
▁수록	-11.3416
▁우와	-11.3417
▁여쭤	-11.3417
▁대학원	-11.3418
▁허공	-11.3418
經	-11.3419
왈	-11.3428
▁아니예요	-11.3429
▁파일	-11.3429
▁낳아	-11.343
찾	-11.3432
▁현상을	-11.3432
▁손님이	-11.3434
일째	-11.3434
▁이전의	-11.3434
▁나타날	-11.3435
▁사람처럼	-11.3435
▁날씨가	-11.3436
▁외로워	-11.3443
▁글쓴이	-11.3447
▁조치를	-11.3448
▁아기를	-11.3451
955	-11.3451
▁파란	-11.3453
게임	-11.3453
▁호수	-11.3453
▁솟	-11.3453
▁암시	-11.3455
▁사나이	-11.3458
▁좋을지	-11.3459
136	-11.3462
▁검정	-11.3463
965	-11.3464
중국	-11.3464
니스	-11.3466
▁정도였다	-11.3468
▁버린다	-11.3471
▁삭제	-11.3475
▁드리겠습니다	-11.3478
▁싸운	-11.3479
▁아내와	-11.3483
▁곳곳에	-11.3484
▁센터	-11.3485
▁흉터가	-11.3485
▁쉽다	-11.3486
▁혁	-11.3486
구멍	-11.3487
월달	-11.3487
▁있겠다	-11.3491
▁훌륭	-11.3498
▁기둥	-11.3498
▁기다렸다	-11.3501
▁역사가	-11.3501
▁계기가	-11.3503
렸어요	-11.3507
▁월드컵	-11.3509
넬	-11.3509
▁앱	-11.3514
▁늙	-11.3515
흉	-11.3517
▁변형	-11.3519
▁선발	-11.3522
▁뱃	-11.3524
▁행복할	-11.3525
답게	-11.3525
▁날라	-11.3527
▁찍고	-11.3531
▁자세를	-11.3532
▁앉아있는	-11.3533
라든지	-11.3533
되나요	-11.3535
▁만드	-11.3535
합시다	-11.3535
정섭	-11.3535
질서	-11.3536
공산당	-11.3538
▁캐릭터	-11.3541
▁뭣	-11.3545
▁당당하게	-11.3546
▁긍정적으로	-11.3548
▁한계를	-11.3549
스님	-11.3549
▁사람마다	-11.3549
▁이래서	-11.355
고싶지	-11.3551
▁오줌	-11.3554
▁집어넣	-11.3554
▁남부	-11.3556
▁아니구	-11.3558
▁이상하다	-11.356
ᄊ	-11.356
▁흡입	-11.356
▁해달라고	-11.356
▁고용보험	-11.3561
▁안겨	-11.3563
사람들이	-11.3564
▁먹구	-11.3564
▁어지러	-11.3568
▁다가오는	-11.3569
굽	-11.3569
▁확률	-11.357
▁벗어날	-11.357
▁망치	-11.357
▁위장	-11.3572
▁그러게요	-11.3574
▁장래	-11.3574
▁부담이	-11.3574
▁완벽하게	-11.3575
意	-11.358
▁최근에는	-11.358
▁고칠	-11.358
▁명칭	-11.3581
▁요구를	-11.3584
▁우산	-11.3584
▁도중에	-11.3585
솜	-11.3586
▁지갑	-11.3586
▁선비	-11.3586
▁적혀	-11.3586
팡	-11.3589
▁뿐입니다	-11.3592
▁어느날	-11.3593
다녔	-11.3595
교사	-11.3595
氣	-11.3596
▁숙소	-11.3596
▁있겠지	-11.3598
▁1992	-11.3598
143	-11.3599
▁드세요	-11.3599
▁so	-11.3599
810	-11.36
▁틀리	-11.36
▁까먹	-11.3601
▁상관이	-11.3603
▁어케	-11.3604
▁이어지는	-11.3605
▁모색	-11.3606
▁슈퍼	-11.3607
▁지키는	-11.3608
▁ᄏᄏᄏᄏᄏᄏᄏᄏᄏᄏᄏᄏᄏᄏᄏ	-11.361
▁독재	-11.3612
얼른	-11.3614
▁그랬어	-11.3615
明	-11.3618
▁정해진	-11.3621
▁묶어	-11.3621
▁충고	-11.3622
▁오픈	-11.3622
▁생계	-11.3622
▁마니	-11.3622
▁같지만	-11.3624
▁선수들	-11.3626
없어요	-11.3629
▁당일	-11.3631
td	-11.3632
쨌	-11.3635
同	-11.3635
안되	-11.3635
▁신속	-11.3636
▁올라가는	-11.3637
▁눈동자	-11.3637
354	-11.3637
▁아니구요	-11.3637
▁재벌	-11.3638
공황	-11.3639
▁시대를	-11.3639
▁망설이	-11.3639
135	-11.3641
▁간직	-11.3641
엠	-11.3642
석재	-11.3642
맡	-11.3644
247	-11.3645
▁정직	-11.3646
▁잘해주	-11.3648
▁배출	-11.3648
▁녀석이	-11.3649
ub	-11.365
▁어렵지	-11.365
▁서울대	-11.3653
▁주거	-11.3655
당시	-11.3655
▁교체	-11.3656
할텐데	-11.3657
▁읽어주셔서	-11.3662
▁투자를	-11.3665
429	-11.3665
229	-11.3666
씁	-11.3667
잡아	-11.3667
▁맑은	-11.3669
▁과정에	-11.367
▁두루	-11.367
▁100%	-11.367
▁입주	-11.367
▁대꾸	-11.367
▁초점을	-11.3672
▁1960	-11.3673
▁피임약	-11.3674
ib	-11.3675
▁유무	-11.3676
▁거라는	-11.3678
허허	-11.3678
▁명시	-11.3679
▁선진국	-11.3681
▁수시로	-11.3681
▁기법	-11.3687
▁구상	-11.3688
▁보람	-11.369
▁멍하니	-11.3691
재혁	-11.3691
얼마	-11.3692
▁대원	-11.3693
▁예배	-11.3693
▁몰고	-11.3694
▁필요하다고	-11.3694
▁ᄌ	-11.3694
▁인원	-11.3695
▁간호	-11.3695
▁싫었	-11.3696
▁오염	-11.3697
▁과자	-11.37
모르겠	-11.3703
▁퍼져	-11.3703
호흡	-11.3703
▁입으로	-11.3706
▁익명	-11.3709
▁국립	-11.371
콕	-11.3713
121	-11.3714
말씀	-11.3714
▁넉넉	-11.3716
▁지낸	-11.3721
▁결과적으로	-11.3723
▁깊어	-11.3725
▁하더니	-11.3726
실장	-11.3726
▁글로	-11.3728
▁종교적	-11.3731
▁당했	-11.3735
▁되기도	-11.3735
▁해놓고	-11.3737
▁부분에서	-11.3737
▁이용하는	-11.3738
협정	-11.3738
142	-11.3738
▁넣었	-11.3739
▁움직일	-11.3743
▁바라본다	-11.3743
▁남학생	-11.3743
▁사라졌	-11.3746
▁마늘	-11.3747
▁잊을	-11.3747
▁2012	-11.3749
았어	-11.3749
▁한순간	-11.3749
▁낡은	-11.375
▁만났다	-11.375
▁선생님께	-11.3752
▁현장에서	-11.3753
▁쥐고	-11.3753
▁옳은	-11.3753
▁상환	-11.3754
▁살면	-11.3755
▁기다렸	-11.3757
▁역량	-11.3757
쭉	-11.3758
▁나누는	-11.3761
▁2014	-11.3762
▁산소	-11.3763
▁내버려	-11.3764
작용	-11.3766
▁사안	-11.3767
ᅮᅮᅮᅮ	-11.3768
혹시	-11.3772
▁그랬던	-11.3772
▁다름없	-11.3772
▁있소	-11.3774
▁서울에서	-11.3775
相	-11.3776
▁다르지	-11.3776
▁섞여	-11.3778
▁사방	-11.3778
▁어린아이	-11.3778
덤	-11.3778
아니야	-11.3783
▁실리콘	-11.3785
모든	-11.3788
942	-11.3789
▁이해하기	-11.3791
▁어음	-11.3792
▁국경	-11.3794
긴한데	-11.3794
▁졸라	-11.3798
쎄	-11.3799
▁담론	-11.3801
▁인간들	-11.3802
처분	-11.3807
▁언제쯤	-11.3809
드렸	-11.3812
▁해준다	-11.3814
ong	-11.3814
무늬	-11.3815
▁꼼짝	-11.3815
▁쏟	-11.3816
253	-11.3817
▁흘렀	-11.3823
하십니까	-11.3823
▁반발	-11.3825
곽	-11.3825
▁위치를	-11.3827
▁알어	-11.3834
클리	-11.3838
490	-11.3838
---------------	-11.3841
갖고	-11.3842
팽	-11.3842
될까요	-11.3843
▁미안하다고	-11.3845
▁인내	-11.3845
▁하여튼	-11.3847
▁네이버	-11.3847
249	-11.3847
뻑	-11.3852
▁돌아가신	-11.3852
▁걱정입니다	-11.3852
▁구성원	-11.3855
▁채무자	-11.3856
▁뜯	-11.3857
▁자란	-11.3858
知	-11.3862
▁첫날	-11.3863
▁일어나지	-11.3863
▁뚱뚱	-11.3865
▁반갑	-11.3865
▁충성	-11.3867
▁퀴즈	-11.3868
▁아껴	-11.3869
▁교훈	-11.387
▁정복	-11.3871
해준다	-11.3872
077	-11.3872
▁없잖아요	-11.3872
944	-11.3874
▁생각하니	-11.388
업무	-11.388
▁눈치보	-11.3883
프트	-11.3886
상현	-11.3887
놓았다	-11.389
▁보아야	-11.3892
▁명절	-11.3892
▁관여	-11.3893
▁절차를	-11.3893
▁계란	-11.3893
▁표현하는	-11.3894
▁의미로	-11.3896
▁말대로	-11.3897
ung	-11.3898
▁잃었	-11.3901
▁의지를	-11.3903
▁비단	-11.3906
▁그늘	-11.3909
也	-11.3911
▁있듯이	-11.3913
ies	-11.3914
▁불가능하다	-11.3914
▁올려놓	-11.3915
썽	-11.3915
▁영구	-11.3923
▁놀리	-11.3926
▁물론이고	-11.3926
▁보석	-11.3927
ry	-11.3929
137	-11.3932
붓	-11.3932
▁인쇄	-11.3932
김삿갓	-11.3935
▁성령	-11.3938
켈	-11.3942
녹	-11.3943
▁연수	-11.3943
690	-11.3944
▁훔쳐	-11.3945
▁민주화	-11.3946
하다보면	-11.3947
▁갈색	-11.3948
▁학과	-11.395
▁시장에서	-11.3952
ight	-11.3952
▁분쟁	-11.3952
▁편견	-11.3953
▁유아	-11.3953
▁웃음이	-11.3954
▁싫은데	-11.3955
행정	-11.3956
▁실장	-11.3957
▁않으려	-11.3958
현대	-11.3961
램	-11.3963
▁없어진	-11.3964
▁유사한	-11.3965
▁문자를	-11.3966
▁가문	-11.3969
▁부패	-11.3971
▁역설	-11.3973
▁낳았	-11.3974
790	-11.3974
937	-11.3974
▁국정	-11.3976
▁돌아왔다	-11.3977
▁모자라	-11.3979
눅	-11.3982
늦	-11.3984
▁보이는데	-11.3985
▁선전	-11.3985
▁끄덕이	-11.3986
▁중세	-11.3987
미국	-11.3987
▁사이버	-11.3989
259	-11.3992
▁아니잖아요	-11.3993
버려서	-11.3993
▁차이는	-11.3994
세기에	-11.3994
▁동아리	-11.3994
해주시면	-11.3997
놓으면	-11.3999
▁악화	-11.4002
▁있더라구요	-11.4002
갛	-11.4006
▁병력	-11.4008
▁구조를	-11.4008
▁실적	-11.4008
▁경주	-11.4008
뻔	-11.401
▁연령	-11.4014
▁솟아	-11.4014
롯	-11.4014
▁합리적	-11.4014
▁유리한	-11.4015
所	-11.4016
▁시작했	-11.4016
▁코너	-11.4018
▁선명	-11.4021
▁극단	-11.4022
▁입에서	-11.4024
▁!...	-11.4026
고싶고	-11.4026
▁귀책사유	-11.4026
▁않음	-11.4027
191	-11.4028
▁불이익	-11.4031
▁잡았다	-11.4031
▁패션	-11.4033
▁내쉬	-11.4036
▁신장	-11.4036
▁축적	-11.4037
▁사람인데	-11.4037
이라며	-11.4038
▁낮추	-11.4038
아버님	-11.4041
하고싶다	-11.4042
ive	-11.4042
▁밉	-11.4042
▁왔던	-11.4042
ᅳᅳ	-11.4043
▁기다릴	-11.4043
244	-11.4044
▁걸음을	-11.4045
▁스쳐	-11.4046
▁맛있게	-11.405
source	-11.405
퍽	-11.405
▁돌렸다	-11.405
▁당분간	-11.405
아이들	-11.4055
▁무사	-11.4057
▁선교	-11.4059
▁벌레	-11.406
其	-11.4063
▁하시면	-11.4064
작업	-11.4069
1"/>	-11.407
▁올렸	-11.4071
▁런던	-11.4071
356	-11.4077
681	-11.4078
▁기사를	-11.4079
▁지낼	-11.408
長	-11.4081
▁마취	-11.4082
▁나타나고	-11.4082
▁추석	-11.4083
▁와인	-11.4085
▁있지요	-11.4085
토리	-11.4085
▁각기	-11.4093
▁되지만	-11.4093
▁아저씨가	-11.4094
成	-11.4094
겠니	-11.4096
잠깐	-11.4098
938	-11.4104
▁마련이다	-11.4106
기위해	-11.4107
新	-11.4108
▁마음먹	-11.4109
▁사귄	-11.4111
590	-11.4111
괜찮	-11.4112
▁편히	-11.4113
해보면	-11.4113
088	-11.4114
▁두렵고	-11.4114
▁받아들일	-11.4115
선우	-11.4117
믹	-11.4118
▁들렸다	-11.4119
ᆢ	-11.4122
▁앉아있다	-11.4123
경쟁	-11.4124
▁회식	-11.4125
▁품질	-11.4125
▁해봐야	-11.4126
▁손님들	-11.4128
▁불길	-11.4129
▁내려와	-11.4129
▁이러면서	-11.413
▁응급실	-11.4132
▁즐기는	-11.4132
선수	-11.4133
▁뒷담	-11.4133
▁주시면	-11.4134
팬	-11.4139
▁아침부터	-11.4141
▁김종	-11.4142
▁그치만	-11.4142
▁한계가	-11.4147
공학	-11.4148
되었지만	-11.4149
▁외롭고	-11.415
▁구역	-11.4151
▁됨	-11.4151
▁어울리는	-11.4153
ory	-11.4154
처음	-11.4154
▁과학적	-11.4155
▁맞추어	-11.4157
▁벼슬	-11.4157
▁할때	-11.4158
447	-11.416
▁부작용이	-11.4161
그러면	-11.4162
▁유대	-11.4164
▁주셨	-11.4165
▁실려	-11.4171
▁주십시오	-11.4171
▁마누라	-11.4173
▁맘대로	-11.4174
▁결정적인	-11.4174
av	-11.4182
261	-11.4183
921	-11.4183
진영	-11.4188
......"	-11.4191
化	-11.4193
▁부처님	-11.4195
▁형편이	-11.4197
꼬리	-11.4197
▁응시	-11.4197
▁펼치	-11.4198
▁An	-11.4198
▁도중	-11.4199
▁철저하게	-11.42
승헌	-11.4202
▁몸으로	-11.4202
▁청산	-11.4202
▁딸아이	-11.4203
▁자네가	-11.4203
▁젖어	-11.4208
▁학자들	-11.4209
ts	-11.4209
영옥	-11.421
▁완치	-11.4213
▁시작하고	-11.4216
379	-11.4216
▁멀리서	-11.4217
멈	-11.4217
높	-11.4221
▁갈아입	-11.4224
▁놔두	-11.4224
▁결론을	-11.4225
▁잘못했	-11.4226
▁꾸미	-11.4227
▁만들어내	-11.4227
▁광경	-11.4227
▁상대를	-11.423
241	-11.4231
▁자신감이	-11.4233
927	-11.4235
▁비행	-11.4238
▁활짝	-11.4243
명령	-11.4249
숨	-11.4252
▁간혹	-11.4252
▁생각하면서	-11.4253
▁찐	-11.4254
랗	-11.4256
▁당국	-11.4256
▁대외	-11.4261
▁아니더라도	-11.4261
▁양자	-11.4264
▁부분들	-11.4266
벗	-11.4268
▁할말	-11.4271
▁측에서	-11.4272
▁뛰어들	-11.4275
207	-11.4277
유럽	-11.428
▁부처	-11.4286
▁이해하지	-11.4287
▁다툼	-11.4289
▁기생	-11.4289
▁병원비	-11.4291
▁높여	-11.4293
▁안됩니다	-11.4296
분께	-11.4297
▁헤어지고	-11.43
껀	-11.4301
tmt	-11.4301
▁뻗어	-11.4303
이라든지	-11.4305
공장	-11.4306
▁괜찮은데	-11.431
했었어요	-11.4311
했거든요	-11.4311
▁진우	-11.4311
▁알바를	-11.4313
▁대다수	-11.4316
水	-11.4318
▁치마	-11.4324
동혁	-11.4326
쩐	-11.4329
▁마약	-11.4329
123	-11.4332
▁경제적으로	-11.4332
▁알려지	-11.4332
▁전파	-11.4333
▁덤	-11.4336
▁학기	-11.4338
註	-11.4339
▁바닷가	-11.4339
▁잠깐만	-11.4341
꽁	-11.4343
누나	-11.4343
fe	-11.4343
▁등장하는	-11.4343
미소	-11.4346
1%	-11.4346
▁쓸데없는	-11.4346
▁슬쩍	-11.4347
▁홍콩	-11.4348
▁후원	-11.4349
▁조루	-11.4352
귓	-11.4353
▁지극히	-11.4353
▁식량	-11.4354
▁편리	-11.4357
▁건데요	-11.4358
▁대량	-11.4358
▁넷	-11.4358
▁어색하	-11.4361
▁팔자	-11.4361
▁왕국	-11.4362
▁석유	-11.4362
933	-11.4362
OFF	-11.4364
▁호적	-11.4364
▁죽어도	-11.4366
▁예민한	-11.4366
▁결혼생활	-11.4366
▁노래방	-11.4368
▁육십	-11.4368
▁불평	-11.4369
▁안해도	-11.438
▁흉내	-11.438
▁괴물	-11.4381
▁덩어리	-11.4385
▁구체적	-11.4387
▁이라크	-11.4387
▁이기적인	-11.4388
▁둘러싼	-11.4388
▁목표가	-11.4389
▁주었	-11.439
▁웬일	-11.4391
▁허위	-11.4391
▁그러냐	-11.4396
▁지수	-11.4399
□	-11.4399
▁공산주의	-11.44
▁계곡	-11.44
271	-11.44
▁직면	-11.4403
▁침략	-11.4404
▁해결해	-11.4404
망상	-11.4405
▁잠겨	-11.4405
▁동맹	-11.4406
▁식구	-11.4407
▁가려고	-11.4409
괜찮아	-11.4409
▁빠지고	-11.441
▁가족과	-11.4413
훌	-11.4413
▁깍	-11.4414
▁엽	-11.4416
▁전화해서	-11.4416
▁흡연	-11.4416
겠나	-11.4418
▁하였는데	-11.4419
936	-11.4421
▁살아서	-11.4423
▁설명할	-11.4427
▁2007	-11.4429
▁영토	-11.4429
▁도시락	-11.4434
▁않았어	-11.4435
▁천사	-11.4435
▁동시	-11.4436
▁직접적으로	-11.4437
▁찾아야	-11.4438
▁출장	-11.4438
▁닫고	-11.4441
▁겪는	-11.4442
▁채권자	-11.4443
▁싸움이	-11.4443
형님	-11.4445
되었는데	-11.4445
▁이뻐	-11.4445
▁잠수	-11.4446
▁숭	-11.4446
썸	-11.4448
919	-11.4448
지않는	-11.4448
으니깐	-11.4449
▁끼치	-11.4449
▁좋지만	-11.4449
▁전학	-11.4451
▁걷기	-11.4451
251	-11.4454
▁나오기	-11.4455
ph	-11.4457
ust	-11.4458
▁봤어요	-11.4459
▁비롯	-11.4462
▁축복	-11.4462
▁어째	-11.4463
943	-11.4465
▁떠오르는	-11.4466
▁끌어안	-11.4467
▁1991	-11.4469
▁자르	-11.4474
▁자발적	-11.4474
▁전세금	-11.4476
▁소용이	-11.4478
아메리카	-11.448
▁두드리	-11.448
계급	-11.4481
▁글로벌	-11.4481
▁업종	-11.4482
▁유효	-11.4482
▁최초로	-11.4483
▁영주	-11.4484
▁알수	-11.4485
꺽	-11.449
▁버틸	-11.4491
~^^	-11.4494
108	-11.45
했네	-11.45
851	-11.4503
▁부드러운	-11.4505
▁내릴	-11.4505
▁짜증이	-11.4507
932	-11.4509
▁한없이	-11.4514
▁신음	-11.4515
▁깨우	-11.4518
밋	-11.4519
▁갇혀	-11.4519
▁차지하고	-11.452
▁잊어버리	-11.4522
▁입법	-11.4523
▁폼	-11.4528
▁거거든요	-11.4529
▁다루는	-11.4529
▁결단	-11.453
통화	-11.4532
▁담당자	-11.4534
드리겠습니다	-11.4534
쳤습니다	-11.4535
iz	-11.4536
▁올림픽	-11.4536
▁받으면서	-11.4536
▁나눈	-11.4537
▁와이프가	-11.454
▁튼튼	-11.454
▁생각하는데	-11.454
▁강사	-11.4541
▁집권	-11.4543
▁소견	-11.4544
177	-11.4549
▁지나친	-11.4549
이라든가	-11.455
▁아내를	-11.4552
▁먹여	-11.4553
하신다	-11.4561
▁계실	-11.4564
IN	-11.4565
▁누굴	-11.4569
166	-11.4569
▁나왔어요	-11.4575
▁이룰	-11.4575
▁보여요	-11.4576
생기	-11.4578
▁뒤집	-11.4583
▁뭐예요	-11.4584
▁들여다	-11.4584
▁좋아해서	-11.4586
▁일으킨	-11.4587
▁솜씨	-11.4587
▁꾸며	-11.4588
▁낳은	-11.4589
▁다스리	-11.459
▁있었는지	-11.4591
▁굴러	-11.4592
▁포기하지	-11.4595
▁품고	-11.4595
▁일생	-11.4597
▁무용	-11.4597
▁민족주의	-11.4597
▁유난히	-11.4597
▁동영상	-11.4598
▁부모님께서	-11.4599
▁많다고	-11.4601
▁드는데	-11.4601
얄	-11.4601
▁나쁘지	-11.4601
본적이	-11.4602
▁휴학	-11.4603
쉽	-11.4603
│	-11.4605
뻘	-11.4605
차별	-11.4605
▁빛나는	-11.4607
▁서사	-11.4608
▁여자입니다	-11.4609
▁장미	-11.4609
TV	-11.461
▁롤	-11.4612
▁이렇듯	-11.4612
▁미안한	-11.4616
▁있는지요	-11.4617
▁날리	-11.4618
ue	-11.4619
기전에	-11.462
▁세탁	-11.462
231	-11.4622
▁캐나다	-11.4623
▁상태라	-11.4624
859	-11.4625
▁그러니까요	-11.4625
▁군대를	-11.4627
▁아프게	-11.4628
▁캔	-11.4631
▁2011	-11.4633
윌	-11.4633
▁쿵	-11.4634
▁상위	-11.4636
행사	-11.464
하우스	-11.4642
▁순환	-11.4643
▁부근	-11.4644
353	-11.4644
▁답답해서	-11.4644
▁받아주	-11.4645
▁떨어져서	-11.4645
▁들어오면	-11.4649
재민	-11.465
▁익히	-11.465
▁부친	-11.4654
권력	-11.4656
▁주장한다	-11.4657
▁높게	-11.4658
848	-11.466
751	-11.4661
111	-11.4662
▁쓰러져	-11.4662
▁빠질	-11.4663
▁탁자	-11.4665
겔	-11.4665
그릇	-11.4665
▁유정	-11.4667
씀	-11.4675
▁연골	-11.4675
▁모험	-11.4676
▁먹었다	-11.4678
▁흐르고	-11.4678
▁끓여	-11.468
▁언제든지	-11.468
▁단백질	-11.468
▁요건	-11.4681
▁힘들면	-11.4683
▁원인은	-11.4683
▁뒤돌아	-11.4683
▁고등	-11.4685
▁요금	-11.4688
999	-11.4688
없어서	-11.4689
▁2015	-11.469
262	-11.4691
▁두통이	-11.4692
182	-11.4692
351	-11.4692
▁치매	-11.4694
수업	-11.4695
므	-11.4695
▁불가피	-11.4695
▁일일이	-11.4695
▁내년에	-11.4697
▁승용차	-11.4698
▁키울	-11.4699
▁생애	-11.47
▁하겠다고	-11.47
▁명분	-11.4702
▁섭섭	-11.4702
▁어째서	-11.4702
▁꼬마	-11.4702
▁유연	-11.4706
▁씻어	-11.471
시켜서	-11.4711
▁물러나	-11.4712
▁뒷받침	-11.4713
▁조용한	-11.4713
▁인물들	-11.4713
▁팽	-11.4714
▁금리	-11.4715
▁놓았다	-11.4715
268	-11.4715
▁알아주	-11.4716
▁낸다	-11.4718
065	-11.4719
商	-11.472
367	-11.4721
▁중국인	-11.4721
빽	-11.4724
▁지나치	-11.4725
▁목요일	-11.4729
▁넹	-11.473
▁사막	-11.473
▁죽일	-11.473
▁만성	-11.4731
▁전세계	-11.4731
▁눈앞	-11.4737
▁하잖아요	-11.474
▁현제	-11.474
133	-11.4741
▁바보같	-11.4742
것같다	-11.4742
▁미안해요	-11.4743
▁회상	-11.4744
▁거북	-11.4745
▁취지	-11.4745
▁부탁드리겠습니다	-11.4746
ᄏᄏᄏᄏᄏᄏᄏᄏᄏ	-11.4748
찼	-11.4749
▁ᄇ니다	-11.4749
싼	-11.4749
▁장모님	-11.475
▁기억나	-11.475
▁뒤쪽	-11.475
▁실재	-11.4752
934	-11.4754
숱	-11.4756
▁긍정적	-11.4756
▁구현	-11.4756
▁드려요	-11.4757
▁찡	-11.4759
▁들어오고	-11.4762
왔어	-11.4763
237	-11.4766
▁흘려	-11.4766
▁있겠는가	-11.4767
시스템	-11.4769
▁마실	-11.477
▁바뀌어	-11.4771
▁초기에	-11.4774
▁재생	-11.4775
▁쏠	-11.4775
▁단속	-11.478
영감	-11.478
줄까	-11.4783
▁곽	-11.4784
▁맡은	-11.4788
▁현실적인	-11.4792
고등학교	-11.4795
▁에너지를	-11.4796
▁바꾸고	-11.4796
▁합니까	-11.4797
▁보름	-11.4799
▁결정하는	-11.48
▁더러운	-11.48
▁다친	-11.4801
▁동굴	-11.4802
공원	-11.4806
뿐이다	-11.4806
▁잦은	-11.4811
▁횟수	-11.4811
▁괴로운	-11.4813
▁효과적인	-11.4813
▁야단	-11.4814
일수도	-11.4818
▁골절	-11.4818
end	-11.4821
▁종아리	-11.4823
▁병행	-11.4824
▁가져야	-11.4826
뻥	-11.4826
729	-11.4826
그려	-11.4827
ob	-11.483
▁멈칫	-11.483
▁마사지	-11.4831
▁때문이라고	-11.4831
▁대법원	-11.4834
▁인근	-11.4836
훈제	-11.4837
{	-11.484
246	-11.4841
▁수요일	-11.4842
▁대조	-11.4843
551	-11.4845
1"><	-11.4845
▁갖추고	-11.4847
▁욕하고	-11.4847
▁밝아	-11.485
학회	-11.4851
2%	-11.4852
▁자유로운	-11.4852
▁한두번	-11.4853
▁형태를	-11.4853
▁폐하	-11.4854
▁거꾸로	-11.4855
으시면	-11.4856
▁봤어	-11.4858
▁각서	-11.4859
쪄	-11.4862
▁경영자	-11.4863
▁죽인	-11.4867
▁노조	-11.4867
▁실무	-11.4871
▁병사	-11.4871
▁슬슬	-11.4873
JKQ	-11.4873
▁은근히	-11.4874
▁안보이	-11.4874
922	-11.4876
▁메일	-11.4876
_______________	-11.4877
▁거론	-11.4879
▁정비	-11.4879
▁발견하고	-11.4879
▁소름	-11.488
▁셋이	-11.4883
856	-11.4885
조심	-11.4885
▁의문이	-11.4887
▁주주	-11.4888
857	-11.4888
웠던	-11.4889
▁방법이다	-11.489
▁강제로	-11.489
107	-11.4893
▁끄덕였다	-11.4893
331	-11.4893
뭉	-11.4894
끄덕	-11.4895
▁약점	-11.4897
▁올릴	-11.4899
씹	-11.4899
얌	-11.4899
▁학부모	-11.49
▁표출	-11.49
작품	-11.4902
▁물어볼	-11.4903
꿀	-11.4904
닭	-11.4906
아니라	-11.4906
▁당시에는	-11.4907
▁경위	-11.491
▁있었으며	-11.4912
▁안되겠	-11.4917
▁싶은데요	-11.4918
▁사라졌다	-11.4918
▁만나러	-11.4918
▁넘었	-11.492
▁조조	-11.4921
그렇다면	-11.4922
▁무시하는	-11.4922
감사해	-11.4922
南	-11.4925
빴	-11.4925
안녕	-11.4926
▁연락처	-11.4928
왼	-11.4929
▁부시	-11.4931
▁낫지	-11.4932
728	-11.4932
▁않았기	-11.4932
▁추가로	-11.4933
▁섞어	-11.4934
▁놓는다	-11.4935
통일	-11.4935
858	-11.4936
드레	-11.4936
▁김대중	-11.4937
861	-11.4941
▁없었지만	-11.4942
장애인	-11.4942
▁알려주시면	-11.4943
▁다듬	-11.4943
▁김일성	-11.4943
▁극히	-11.4946
▁울려	-11.4948
▁해야할까요	-11.4949
수련	-11.4953
▁영재	-11.4953
▁태우	-11.4954
▁광장	-11.4954
숙모	-11.4955
▁발급	-11.4957
▁변비	-11.4958
▁서민	-11.4958
▁초음파	-11.4959
▁응원할게요	-11.4959
▁개인적	-11.4961
▁의외로	-11.4963
하기에는	-11.4963
▁걸었다	-11.4964
263	-11.4967
▁헌신	-11.4968
▁긍정	-11.4968
118	-11.4969
年	-11.497
▁무작정	-11.497
쌈	-11.4973
▁소리쳤다	-11.4974
▁국왕	-11.4975
▁잃어버린	-11.4975
▁책임지	-11.4976
▁얻게	-11.4978
▁넘어갔	-11.4979
▁그러다보니	-11.4982
▁진작	-11.4982
▁비교해	-11.4984
앞에서	-11.4986
아줌마	-11.4986
▁후보자	-11.4986
고맙	-11.4986
183	-11.4987
▁맡고	-11.4989
▁박정희	-11.4991
▁마비	-11.4993
숫	-11.4994
▁빨라	-11.4995
▁개척	-11.4996
▁플레이	-11.4997
849	-11.4997
▁불과하다	-11.4998
사령관	-11.5
ign	-11.5
셨죠	-11.5002
▁세계적인	-11.5005
we	-11.5006
▁마시면	-11.5009
▁덧	-11.501
▁두사람	-11.5011
▁예수님	-11.5013
▁엎드려	-11.5015
▁수술후	-11.5017
질환	-11.5019
▁지랄	-11.5023
▁가운데서	-11.5024
▁찬성	-11.5024
뿌	-11.5026
만족	-11.5026
198	-11.5027
ak	-11.5028
▁상황인데	-11.5028
▁정신적인	-11.5031
▁떠났다	-11.5032
▁약국	-11.5034
실망이야	-11.5034
▁니들	-11.5035
▁쉰	-11.5035
흐흐	-11.5036
▁열리고	-11.5038
▁받았던	-11.5039
▁정리하고	-11.5039
▁하지마	-11.5041
▁물결	-11.5042
▁올랐다	-11.5043
▁죽는다	-11.5043
밴	-11.5044
▁걸친	-11.5045
▁넋	-11.5045
법률	-11.5046
▁라식	-11.5046
▁불쌍하	-11.5047
▁떨어진다	-11.5048
하였지만	-11.5048
싶어서	-11.5051
▁오세요	-11.5051
__10/	-11.5052
▁작게	-11.5052
346	-11.5054
▁제자리	-11.5055
▁가져온	-11.5058
ance	-11.5059
▁전원	-11.506
▁않으려고	-11.5062
▁폐쇄	-11.5065
▁접어	-11.5066
458	-11.5066
▁천장	-11.507
▁Com	-11.5071
▁선행	-11.5074
▁동경	-11.5074
▁죄송해요	-11.5074
▁간격	-11.5082
▁바뀔	-11.5082
했듯이	-11.5084
▁관계자	-11.5085
▁간식	-11.5086
▁완료	-11.5087
▁진단서	-11.5088
▁본성	-11.5089
▁아이구	-11.5089
________________	-11.509
했냐	-11.509
▁둘이서	-11.5092
륵	-11.5096
▁일러	-11.5096
모양	-11.5096
828	-11.5097
▁예민하	-11.5099
▁계기	-11.5099
변화	-11.5099
하시길	-11.51
▁화려	-11.5101
364	-11.5105
▁떠났	-11.5106
▁타협	-11.5107
▁미처	-11.5108
▁있더라	-11.5108
▁불꽃	-11.5109
▁투자자	-11.5109
▁Press	-11.5113
829	-11.5115
▁급여를	-11.5115
▁선우	-11.5115
▁말이오	-11.5116
▁주차장	-11.5118
469	-11.512
▁속옷	-11.5121
여명	-11.5122
–	-11.5127
▁증대	-11.5128
▁치며	-11.513
352	-11.513
▁옮겼	-11.5131
▁가세요	-11.5133
▁태워	-11.5135
下	-11.5139
됫	-11.5139
▁책임감	-11.514
조선일보	-11.5143
▁의논	-11.5145
▁요거	-11.5147
돼요	-11.5151
▁가능성은	-11.5154
▁올랐	-11.5154
▁떠올랐다	-11.5155
▁명예훼손	-11.5157
셜	-11.5157
더군	-11.5158
▁총선	-11.5158
▁누군지	-11.5158
▁지속적인	-11.5158
▁무관심	-11.5162
▁적합한	-11.5162
였죠	-11.5164
▁불쌍한	-11.5169
재판	-11.5172
▁공자	-11.5173
▁유지하고	-11.5173
▁떨어졌다	-11.5174
▁요렇게	-11.5175
먼저	-11.5178
윤희	-11.5179
뿐이었다	-11.518
制	-11.518
▁겪은	-11.5181
분께서	-11.5185
▁신용카드	-11.5185
925	-11.5185
▁물품	-11.5185
▁열두	-11.5186
▁발길	-11.5187
▁주장했다	-11.5189
해줘서	-11.5191
버섯	-11.5191
ST	-11.5193
ans	-11.5194
▁감염	-11.5195
훤	-11.5195
봤어	-11.5196
▁어둡	-11.5198
▁소파에	-11.5199
뜰	-11.5199
▁벌어졌	-11.5199
▁보려고	-11.5202
합니까	-11.5204
▁춤추	-11.5206
▁발걸음	-11.5208
▁동쪽	-11.5208
근무	-11.5208
457	-11.521
347	-11.521
▁양념	-11.5211
▁서명	-11.5212
319	-11.5215
언어	-11.5215
하리라	-11.5216
ev	-11.5219
▁침착	-11.522
▁풍요	-11.5228
▁자신들이	-11.5229
▁어땠	-11.523
▁자다가	-11.523
924	-11.5231
▁몰두	-11.5231
▁중국에서	-11.5232
끗	-11.5233
923	-11.5234
▁마이크	-11.5235
242	-11.5241
敎	-11.5241
▁재배	-11.5244
853	-11.5244
▁분단	-11.5244
▁졸업하고	-11.5245
758	-11.5245
캠	-11.5245
프레	-11.5245
▁좋아했	-11.5246
▁합병	-11.5247
267	-11.5247
▁사람들한테	-11.5247
871	-11.5247
땡	-11.5249
▁전형적인	-11.5249
759	-11.525
▁00	-11.5251
▁착용	-11.5253
749	-11.5253
벌레	-11.5253
122	-11.5254
▁레스토랑	-11.5256
늠	-11.526
▁헬스	-11.5261
▁읽어보	-11.5265
112	-11.5265
했을때	-11.5266
▁자각	-11.5266
▁먹어서	-11.5268
926	-11.5269
173	-11.5269
▁하시더라구요	-11.5269
조각	-11.5271
솥	-11.5272
▁씩씩	-11.5276
▁지났는데	-11.528
po	-11.528
韓	-11.5283
▁어르신	-11.5284
▁편입	-11.5284
▁낚시	-11.5284
하겠지	-11.5285
▁나보고	-11.5286
▁믿는다	-11.5287
4%	-11.529
863	-11.5291
▁짠	-11.5291
▁마찬가지다	-11.5291
▁마친	-11.5292
됐습니다	-11.5292
▁평일	-11.5294
▁생겼습니다	-11.5294
▁묻지	-11.5295
▁갈까	-11.5296
▁자세로	-11.5297
▁편입니다	-11.53
▁회장님	-11.5301
▁것이지요	-11.5301
냇	-11.5303
▁남기고	-11.5303
▁시점에서	-11.5305
▁여부를	-11.5305
879	-11.5308
▁아이들과	-11.531
▁서쪽	-11.531
記	-11.531
}	-11.531
▁뒤늦게	-11.531
221	-11.5311
▁얘들	-11.5311
▁자세하게	-11.5313
▁주차	-11.5313
▁일으켰	-11.5314
▁민망	-11.5314
▁New	-11.5319
548	-11.532
영준	-11.532
▁챙겨주	-11.5321
단위	-11.5325
461	-11.5326
▁차지하는	-11.5326
▁사람이라면	-11.5327
▁설탕	-11.5328
▁빠져나가	-11.5328
748	-11.5329
혼잣말	-11.533
하지말고	-11.533
▁해명	-11.5331
▁빌려주	-11.5333
▁못하다	-11.5334
▁가정폭력	-11.5336
ach	-11.5337
▁걸려서	-11.5338
869	-11.5339
▁넘치는	-11.5339
▁우리나라에서	-11.534
▁됩니까	-11.5341
▁조회	-11.5343
▁바꾼	-11.5345
172	-11.5346
▁날아가	-11.5347
▁알았습니다	-11.5349
▁채소	-11.5351
935	-11.5351
▁압니다	-11.5352
▁고민이에요	-11.5352
▁살아가고	-11.5356
▁악몽	-11.5356
▁정통	-11.5356
쫄	-11.5357
▁여지가	-11.5357
▁반항	-11.5358
▁케이스	-11.5359
▁유머	-11.536
▁움직이지	-11.5364
▁아나운서	-11.5364
448	-11.5364
8%	-11.5365
456	-11.5365
▁앨	-11.5367
▁궁금해요	-11.5367
361	-11.537
해놓고	-11.5371
▁먹었는데	-11.5371
▁받았어요	-11.5371
▁보여서	-11.5371
▁장난감	-11.5371
sch	-11.5372
▁날카로운	-11.5372
▁붙들	-11.5372
▁돕는	-11.5374
431	-11.5374
으셔서	-11.5377
▁모니터	-11.538
▁물체	-11.5383
▁열등감	-11.5384
831	-11.5385
841	-11.5386
▁깨어나	-11.5388
▁논리적	-11.539
▁넷째	-11.5392
▁도장	-11.5393
451	-11.5395
▁더욱더	-11.5395
▁부양	-11.5397
미디어	-11.5398
▁평상시	-11.5399
아이구	-11.5401
▁골반	-11.5402
▁그제야	-11.5407
조치	-11.5409
▁예민해	-11.541
희진	-11.5412
▁미국인	-11.5413
▁성관계를	-11.5414
▁감탄	-11.5414
▁교양	-11.5415
839	-11.5418
▁망상	-11.542
▁고난	-11.5422
홍섭	-11.5423
해왔다	-11.5424
747	-11.5424
▁10%	-11.5425
▁자연스러운	-11.5427
高	-11.543
▁필요합니다	-11.5431
▁하시면서	-11.5434
▁하소연	-11.5434
▁헤매	-11.5437
▁겪었	-11.5437
킥	-11.5438
▁교장	-11.5439
▁설거지	-11.5439
▁베풀	-11.544
알았	-11.544
▁갔었	-11.544
형태	-11.5446
▁음주운전	-11.5446
體	-11.5446
▁호주	-11.5447
741	-11.5447
▁소매	-11.545
▁여왕	-11.5451
홉	-11.5452
▁내린다	-11.5454
▁갠	-11.5455
만큼이나	-11.5455
▁방황	-11.5459
7%	-11.546
▁복잡하	-11.546
▁시작했고	-11.546
▁보험료	-11.5461
▁넓어	-11.5462
▁내외	-11.5462
▁관습	-11.5463
▁싫습니다	-11.5464
▁휴지	-11.5464
▁근본적으로	-11.5466
▁접시	-11.547
▁죄인	-11.547
▁새우	-11.547
▁없었기	-11.5471
▁어플	-11.5471
▁과실	-11.5471
781	-11.5472
그렇다	-11.5472
▁설교	-11.5473
지않았	-11.5473
▁계승	-11.5474
▁끔찍한	-11.5475
▁규정하고	-11.5477
쿡	-11.5477
989	-11.5477
661	-11.5478
해주셨	-11.5479
앞으로	-11.548
▁긴급	-11.5482
▁가죽	-11.5483
▁성폭행	-11.5485
▁깨지	-11.5488
▁좋겠는데	-11.5491
랙	-11.5493
하더군요	-11.5496
852	-11.5498
▁길러	-11.5499
355	-11.5501
▁모텔	-11.5501
▁보안	-11.5503
▁할지라도	-11.5503
▁실감	-11.5505
ru	-11.5505
▁다녀왔	-11.5506
윤주	-11.5507
▁혼나	-11.5511
▁중순	-11.5512
▁모집	-11.5512
▁무너져	-11.5513
868	-11.5515
▁전력	-11.5515
출판사	-11.5517
▁재미없	-11.5517
559	-11.552
딛	-11.552
▁달라질	-11.5524
▁외로운	-11.5524
▁넘쳐	-11.5525
▁변하지	-11.5528
▁압도	-11.5529
▁간통	-11.5531
먹으면	-11.5531
킴	-11.5532
뜨린	-11.5533
▁구성된	-11.5535
▁식욕	-11.5536
6%	-11.5536
저희	-11.5537
▁흔들어	-11.5538
▁잠들어	-11.5538
757	-11.554
▁트럼프	-11.5548
act	-11.5549
혜찬	-11.5553
같다	-11.5554
▁농부	-11.556
▁남들보다	-11.5562
▁편이라	-11.5562
투성이	-11.5563
▁난감	-11.5563
世	-11.5564
▁각국	-11.5567
ᄁ	-11.5567
▁휴일	-11.5568
▁일련의	-11.5568
▁계집	-11.5569
▁인성	-11.557
ion	-11.5572
▁간판	-11.5577
▁노무현	-11.5579
확인	-11.5583
ary	-11.5583
넷	-11.5584
▁깨닫게	-11.5586
558	-11.5588
▁진정으로	-11.5588
ture	-11.559
▁칠십	-11.5595
▁재현	-11.5595
439	-11.5595
▁메시지를	-11.5596
훈련	-11.5597
365	-11.5597
▁불안해서	-11.56
761	-11.56
▁즈음	-11.56
▁원룸	-11.5601
코드	-11.5601
▁비염	-11.5603
▁엑스레이	-11.5603
▁지켜야	-11.5606
854	-11.561
▁굳은	-11.5611
459	-11.5612
▁소프트웨어	-11.5615
현우	-11.5616
▁귀여운	-11.5619
▁이기적이	-11.5621
245	-11.5621
▁명성	-11.5622
528	-11.5622
小	-11.5623
주셨으면	-11.5626
771	-11.5626
▁느껴졌다	-11.5629
정훈	-11.5632
▁풍부	-11.5634
991	-11.5636
▁편인데	-11.5637
▁닮았	-11.5637
371	-11.5644
교통	-11.5645
▁갔더니	-11.5647
▁웹	-11.5649
ain	-11.5657
go	-11.566
▁토대로	-11.5666
▁바이러스	-11.5667
264	-11.567
햄	-11.5671
!!!!!	-11.5673
▁안그래도	-11.5677
▁자막	-11.5678
087	-11.5679
▁이용할	-11.5679
549	-11.5681
▁신입	-11.5682
▁군주	-11.5683
▁상황이라	-11.5684
ᄏᄀᄏ	-11.5684
▁벗고	-11.5684
one	-11.5685
▁회전	-11.5687
175	-11.5689
▁박물관	-11.5689
▁따뜻하게	-11.569
잇어	-11.5693
2"><	-11.5696
▁무엇이든	-11.5697
▁좋았다	-11.5697
▁쓰다듬	-11.5699
▁의사소통	-11.5699
453	-11.57
631	-11.5702
▁여신	-11.5703
▁방송국	-11.5704
▁해결되	-11.5705
▁지으며	-11.5706
▁적합	-11.5706
▁MRI	-11.5707
것같고	-11.5707
표현	-11.5708
▁Z	-11.5708
▁은근	-11.571
▁고찰	-11.571
▁쏟아져	-11.5714
▁찢	-11.5716
▁강연	-11.5716
557	-11.5718
▁250	-11.572
▁좋아해요	-11.5721
▁행복해지	-11.5722
▁반박	-11.5722
잭	-11.5723
▁흩어	-11.5728
529	-11.5731
651	-11.5732
▁사업장	-11.5735
▁자랐	-11.5735
io	-11.5736
▁우울감	-11.5738
▁지표	-11.5742
▁실용	-11.5743
▁하얗게	-11.5743
238	-11.5744
▁외경	-11.5746
▁불안정	-11.5747
▁먹자	-11.5749
▁천국	-11.5751
▁안되면	-11.5754
▁풍부한	-11.5754
881	-11.5756
▁바늘	-11.576
917	-11.576
정애	-11.5763
사장님	-11.5765
847	-11.5766
務	-11.5767
▁독자들	-11.5767
▁읽었	-11.5769
▁모범	-11.577
▁개인파산	-11.5771
▁경제학	-11.5774
▁애국	-11.5776
176	-11.5776
▁진전	-11.5777
▁비슷하게	-11.5781
▁단단히	-11.5782
731	-11.5783
바구니	-11.5783
▁무엇일까	-11.5789
▁없잖아	-11.5789
▁못먹	-11.5789
등록	-11.5794
362	-11.5796
tic	-11.5796
옵니까	-11.5799
그램	-11.5802
▁들었던	-11.5802
▁경제적인	-11.5803
▁노동자들	-11.5803
▁분명하게	-11.5803
▁해봤는데	-11.5806
캬	-11.5807
471	-11.5811
쥔	-11.5811
▁났습니다	-11.5813
739	-11.5815
▁뭐냐면	-11.5818
▁어울려	-11.582
▁진주	-11.5821
▁이루어진다	-11.5821
▁반란	-11.5822
▁승부	-11.5822
▁껴안	-11.5824
▁늘어놓	-11.5826
▁못하겠어요	-11.583
▁편안하게	-11.583
▁앞뒤	-11.5831
되므로	-11.5835
스탠	-11.5836
▁전문가들	-11.5839
▁빨개	-11.5839
▁시작되었다	-11.584
▁발생할	-11.5841
방향	-11.5846
용품	-11.5848
▁모양이다	-11.5849
Line	-11.5849
▁쌓인	-11.585
개념	-11.5852
과정에서	-11.5852
투쟁	-11.5855
▁아픈데	-11.5855
▁파트너	-11.586
▁입력	-11.5864
▁콘돔	-11.5868
▁만만치	-11.5869
▁굳게	-11.5869
345	-11.587
▁교황	-11.587
▁속도로	-11.5876
▁무서웠	-11.5879
▁소유자	-11.588
▁복귀	-11.5882
▁첨부	-11.5882
▁훌쩍	-11.5884
▁낯설	-11.5888
__09/	-11.5888
샷	-11.5888
553	-11.5889
부족	-11.5891
▁고통스럽	-11.5902
▁때문일	-11.5903
▁단편	-11.5907
▁본사	-11.5913
▁동아시아	-11.5913
ice	-11.5915
릅	-11.5916
▁특이한	-11.5917
▁관련태	-11.5917
▁스스로에게	-11.5918
▁국물	-11.5919
집행	-11.5921
gr	-11.5923
▁노트	-11.5928
▁있구나	-11.5928
싯	-11.5929
▁가압류	-11.5929
냅니다	-11.5931
軍	-11.5933
▁모르는데	-11.5933
756	-11.5934
▁영원	-11.5934
해달라고	-11.5934
113	-11.5936
▁누구한테	-11.5937
▁연간	-11.5937
▁꾹	-11.5938
669	-11.5939
▁괜찮아지	-11.594
▁인스타	-11.5941
혜진	-11.5941
▁살았던	-11.5943
628	-11.5944
▁훗날	-11.5946
▁바짝	-11.5946
▁신규	-11.5947
▁내려놓고	-11.5947
▁갈래	-11.5949
▁엉뚱한	-11.5954
▁억울한	-11.5954
▁실존	-11.5954
▁두분	-11.5955
▁우승	-11.5955
779	-11.5957
▁가로막	-11.5958
▁태어나서	-11.5958
▁아니겠습니까	-11.5962
▁이르렀다	-11.5964
▁찾았다	-11.597
752	-11.5972
▁자체로	-11.5972
▁160	-11.5977
라이트	-11.5978
▁실질적으로	-11.5979
232	-11.5981
▁로비	-11.5981
▁다룬	-11.5981
느끼	-11.5984
▁찍었	-11.5985
▁것임을	-11.5988
동욱	-11.5988
▁좋죠	-11.5989
our	-11.599
9%	-11.5991
▁업적	-11.5993
▁예전부터	-11.5993
mo	-11.5995
▁강조하는	-11.5997
마담	-11.5997
훔	-11.6002
▁수고했어요	-11.6003
▁공증	-11.6004
▁느리	-11.6004
순례	-11.6004
정권	-11.6006
▁침입	-11.6006
227	-11.6006
▁50%	-11.6011
뜯	-11.6011
▁차츰	-11.6012
앜	-11.6012
742	-11.6013
648	-11.6013
렇게	-11.6016
▁매운	-11.6017
▁몸매	-11.6018
▁몽골	-11.602
▁강원도	-11.6021
학자들	-11.6023
하십니다	-11.6024
▁순간부터	-11.6027
뜬	-11.6027
657	-11.6027
▁성희롱	-11.6028
▁믿기	-11.6029
556	-11.603
댈	-11.603
449	-11.6031
▁두려운	-11.6032
▁넘겼	-11.6033
▁밝혔	-11.6033
hy	-11.6035
거같다	-11.6035
▁펑펑	-11.6036
▁막힌	-11.6038
▁포함되어	-11.6038
753	-11.604
샵	-11.604
븐	-11.6041
▁아내에게	-11.6041
▁진지한	-11.6041
▁떠오른	-11.6042
▁것이므로	-11.6042
ey	-11.6045
▁노후	-11.6045
462	-11.6045
▁원형	-11.6047
▁야채	-11.6047
821	-11.6048
658	-11.6048
▁미혼	-11.6048
▁자문	-11.605
갑자기	-11.6051
당황	-11.6052
▁들린다	-11.6052
▁바랄게요	-11.6057
▁쓸어	-11.6064
▁철학자	-11.6065
659	-11.6065
▁현명한	-11.6066
▁분배	-11.6066
▁왕조	-11.6066
867	-11.6067
주의자들	-11.6074
▁어두워	-11.6075
----	-11.6075
▁뭘까요	-11.6077
▁모양이었다	-11.6079
안돼	-11.6082
▁묵묵히	-11.6082
754	-11.6085
649	-11.6087
▁지분	-11.6089
▁발굴	-11.6092
▁불규칙	-11.6092
십쇼	-11.6096
▁무사히	-11.6096
▁금전적	-11.6097
→	-11.6098
▁기색	-11.6099
▁사용자	-11.61
▁천연	-11.61
434	-11.6104
▁그러더니	-11.6107
▁매개	-11.6108
▁중요하게	-11.611
▁모셔	-11.6112
▁승진	-11.6113
였는지	-11.6113
▁이승만	-11.6114
721	-11.6116
387	-11.6116
▁고립	-11.6119
▁명상	-11.6121
998	-11.6123
▁술자리	-11.6124
다닐	-11.6125
쭈	-11.6128
988	-11.6139
셰	-11.614
▁화폐	-11.6142
▁전남친	-11.6145
성준	-11.6145
▁Co	-11.6145
▁길거리	-11.615
낌	-11.6152
분노조절	-11.6157
시켜주	-11.6158
▁객관	-11.6158
769	-11.6159
▁복사	-11.6163
백만원	-11.6164
▁그렇구나	-11.6164
▁떠돌	-11.6165
▁화요일	-11.6165
▁있던데	-11.6166
Desc	-11.6166
321	-11.6168
言	-11.617
▁화가나	-11.6172
톰	-11.6174
▁번갈아	-11.6174
671	-11.6178
ᅧ	-11.6178
▁멸망	-11.6178
987	-11.6179
▁만나보	-11.6182
▁명문	-11.6183
▁못했어요	-11.6184
승우	-11.6185
▁시작했어요	-11.6185
276	-11.6187
▁공제	-11.6187
▁해답	-11.6191
▁영수증	-11.6191
▁타이틀	-11.6196
076	-11.6196
충동	-11.6198
학습	-11.6206
롭다	-11.6209
▁친구들한테	-11.621
327	-11.6216
혜정	-11.6217
하더라고요	-11.6217
▁뺀	-11.6218
▁쳐다보았다	-11.6218
▁주어야	-11.6219
479	-11.6219
▁이용해서	-11.6219
▁즐길	-11.622
▁요즘엔	-11.6221
561	-11.6223
▁과외	-11.6223
▁튀어	-11.6223
動	-11.6224
▁깜빡	-11.6229
▁소스	-11.6229
▁효과적으로	-11.6229
라던가	-11.623
준식	-11.6234
감사합니다	-11.6234
민씨	-11.6236
▁자칫	-11.6237
▁뿌려	-11.6237
842	-11.6238
▁De	-11.6242
實	-11.6245
▁ᄒᄒᄒᄒᄒ	-11.6248
해주실	-11.6249
▁비롯해	-11.625
ton	-11.6256
▁서너	-11.6257
▁이를테면	-11.6262
▁야근	-11.6267
▁비닐	-11.6269
▁있었으나	-11.627
▁PC	-11.6272
are	-11.6276
다섯	-11.6276
▁인정하지	-11.6282
▁여학생입니다	-11.6283
▁어떡하지	-11.6283
▁모방	-11.6285
▁못했고	-11.6285
▁교섭	-11.6289
629	-11.6291
外	-11.6292
▁병신	-11.6298
▁부족하다	-11.6299
▁김씨	-11.63
▁접어들	-11.63
ian	-11.6301
▁종료	-11.6305
▁사흘	-11.6307
▁여겼	-11.6308
out	-11.6308
▁비롯된	-11.6308
▁내다보	-11.6309
▁안철수	-11.631
받아서	-11.6312
▁시나리오	-11.6313
381	-11.6316
▁향수	-11.6319
▁운송	-11.6321
겨울	-11.6327
존재	-11.6327
▁늘리	-11.6327
▁정당화	-11.6327
반응	-11.6327
바르	-11.6328
▁무섭게	-11.6329
▁징역	-11.633
뎌	-11.6334
▁생겨나	-11.6336
ore	-11.6336
쿵	-11.6337
▁대놓고	-11.6338
눔	-11.6339
▁알아볼	-11.634
▁십자가	-11.634
▁소릴	-11.634
▁육체적	-11.6341
▁어머니에게	-11.6343
▁2~3	-11.6345
▁쾌락	-11.6346
받는다	-11.6347
같아요	-11.6347
어머님	-11.6347
▁가르쳐주	-11.6348
▁단절	-11.6349
▁인간에게	-11.6349
건설	-11.6351
▁점포	-11.6352
▁부드럽게	-11.6352
꾼들	-11.6354
844	-11.6354
▁이렇다	-11.6355
名	-11.6356
▁있었지	-11.6356
▁맛있어	-11.6359
746	-11.6359
▁클라	-11.636
277	-11.636
▁삼키	-11.6361
▁양복	-11.6362
▁초점	-11.6363
▁진동	-11.6364
185	-11.6365
668	-11.6366
준제	-11.6366
▁알코올	-11.6369
▁가져왔	-11.637
▁삼각	-11.637
채권	-11.6372
184	-11.6372
됐어	-11.6373
손님	-11.6373
744	-11.638
▁콘텐츠	-11.6382
▁활기	-11.6382
하기엔	-11.6384
▁바울	-11.6386
▁법무사	-11.6391
▁모여서	-11.6394
▁변수	-11.6404
409	-11.6404
▁요양	-11.6405
▁깨달았다	-11.6407
▁교차	-11.6408
▁강물	-11.6409
▁사용한다	-11.641
▁좋아하는데	-11.6412
▁짚어	-11.6413
▁끼어	-11.6413
846	-11.6414
▁알아듣	-11.6415
海	-11.6416
▁실질적인	-11.6416
▁법원에서	-11.6419
줬어요	-11.6419
ᄀᄀ	-11.6422
낱	-11.6424
▁전화벨	-11.6428
о	-11.6429
▁접속	-11.6429
▁염두에	-11.6429
▁KBS	-11.643
▁얻으	-11.643
▁구십	-11.643
▁치즈	-11.6431
▁허물	-11.6431
▁철저한	-11.6433
▁어린애	-11.6436
▁받으시	-11.6436
531	-11.6437
▁예쁘게	-11.6443
동훈	-11.6444
렐	-11.6446
▁부딪히	-11.6447
▁벤처	-11.6448
▁수단으로	-11.6456
▁최상	-11.6457
▁되잖아요	-11.6458
궈	-11.6459
918	-11.646
222	-11.646
팝	-11.6463
지않을까	-11.6465
▁마신다	-11.6466
▁수수료	-11.6468
힘들어	-11.6469
▁않느냐	-11.647
DP	-11.6477
▁찾아가서	-11.6478
낚	-11.648
️	-11.648
▁1989	-11.6481
▁안타까운	-11.6481
잠시	-11.6483
▁깨달음	-11.6485
▁특유의	-11.6485
▁불확실	-11.6489
▁대출금	-11.649
▁페이지	-11.6498
▁건드리	-11.6498
▁제임스	-11.6499
ind	-11.6499
여섯	-11.65
762	-11.6502
768	-11.6503
▁커녕	-11.6504
▁뛰쳐	-11.6504
▁코성형	-11.6505
▁멈춘	-11.6507
▁지킬	-11.6507
▁지능	-11.6508
▁밝힌	-11.6509
▁어머니께	-11.6509
목표	-11.6511
og	-11.6511
ark	-11.6511
909	-11.6515
▁스튜디오	-11.6515
▁실례	-11.6516
186	-11.6519
利	-11.652
깊	-11.652
▁팬티	-11.6521
▁던진	-11.6521
▁여관	-11.6522
傳	-11.6524
▁온전히	-11.6524
▁맞으면	-11.6525
▁알아봐	-11.6526
▁어린이집	-11.6527
튀	-11.6529
▁밀리	-11.653
▁무효	-11.653
▁공익	-11.653
▁말이냐	-11.6532
西	-11.6533
쑥	-11.6535
들어오	-11.6538
page	-11.6539
639	-11.6541
▁라섹	-11.6543
▁터질	-11.6545
거리면서	-11.6547
547	-11.6549
ᄀᄀᄀ	-11.655
▁아이스크림	-11.655
ord	-11.6551
▁즉각	-11.6552
▁격렬	-11.6553
ern	-11.6553
▁있을때	-11.6556
클럽	-11.6556
위원장	-11.6557
▁마음껏	-11.6558
▁생각해보니	-11.6559
▁극단적인	-11.656
▁태풍	-11.6561
911	-11.6562
줬습니다	-11.6562
한숨	-11.6563
▁로봇	-11.6569
바퀴	-11.6569
▁화상	-11.657
폴리	-11.6571
쫙	-11.6572
▁비대칭	-11.6572
▁심리상담	-11.6578
378	-11.6578
▁올렸다	-11.658
▁붙인	-11.658
▁뚜껑	-11.6581
334	-11.6582
▁피곤한	-11.6585
安	-11.6594
▁점심시간	-11.6595
▁든든	-11.6599
用	-11.6603
펴	-11.661
▁미움	-11.6611
켠	-11.6611
▁뭡니까	-11.6611
▁웃긴	-11.6614
닮	-11.6616
▁한가운데	-11.6616
귤	-11.6616
웁	-11.6616
417	-11.6618
▁차이점	-11.6619
놓았	-11.6622
자동차	-11.6632
427	-11.6634
임에도	-11.6635
헐	-11.6636
▁정형외과	-11.6638
方	-11.6642
▁학대	-11.6642
▁눈밑	-11.6646
▁저작권	-11.6647
하십시오	-11.6649
▁신기하	-11.6652
▁늘어난	-11.6653
▁매달려	-11.6654
▁들으면서	-11.6655
(『	-11.6656
임금	-11.6658
▁이외의	-11.6661
363	-11.6662
스러울	-11.6664
▁납득	-11.6666
▁놓았	-11.6667
997	-11.6667
▁안검하수	-11.6668
▁출간	-11.6671
▁왜이렇게	-11.6674
▁친구관계	-11.6677
▁인체	-11.6677
∼1	-11.6677
662	-11.6679
▁물어보니	-11.668
펀	-11.6681
ᄏᄏᄏᄏᄏᄏᄏᄏᄏᄏ	-11.6681
▁잡는다	-11.6683
▁당했습니다	-11.6685
▁날마다	-11.6685
679	-11.6689
862	-11.6689
띤	-11.669
됨으로써	-11.6691
▁찾아갔	-11.6693
겟지	-11.6693
중앙	-11.6694
것보다	-11.6694
▁소유권	-11.6695
內	-11.6699
▁간절히	-11.6702
▁성욕	-11.6703
▁부른	-11.6705
579	-11.6706
▁출혈	-11.6706
▁반쯤	-11.6706
▁쓰이는	-11.6709
▁타입	-11.6719
▁조항	-11.6721
▁빌어	-11.6722
▁쪼끔	-11.6723
▁놀랄	-11.6724
743	-11.6726
▁남겼	-11.6726
▁꺼져	-11.6729
▁임원	-11.6729
▁불쑥	-11.6729
▁절제	-11.673
▁벤치	-11.6733
▁York	-11.6735
0443-0000	-11.6735
▁의사결정	-11.6742
▁농장	-11.6747
▁Con	-11.6747
▁개설	-11.6748
▁김정일	-11.6754
▁신경질	-11.6755
해봐요	-11.6757
▁기울여	-11.6758
꿰	-11.6761
▁훼손	-11.6761
▁보기엔	-11.6764
붐	-11.6766
▁열차	-11.6767
出	-11.677
시간씩	-11.6771
539	-11.6772
▁세입자	-11.6773
즙	-11.6775
▁없었어	-11.6775
▁없을까	-11.6777
라던지	-11.678
▁외우	-11.6781
▁생겼어요	-11.6782
▁방침	-11.6785
▁새롭	-11.6785
前	-11.6793
州	-11.6793
▁밤마다	-11.6793
▁겹쳐	-11.6794
437	-11.6799
▁정밀	-11.68
뿜	-11.6801
▁옥상	-11.6802
▁기꺼이	-11.6802
▁목록	-11.6807
二	-11.681
▁헤어질	-11.6811
▁않았을까	-11.6815
▁궁금하네요	-11.6818
▁바치	-11.6822
어쩌	-11.6824
官	-11.6828
렇	-11.683
▁소용없	-11.683
▁알콜	-11.6831
993	-11.6832
▁정황	-11.6836
▁저지르	-11.6845
▁기원전	-11.6845
▁침실	-11.6846
▁술먹고	-11.6851
▁뜨겁	-11.6852
▁상태인데	-11.6855
656	-11.6857
▁뛰어넘	-11.6858
▁액수	-11.6858
▁비뇨기과	-11.686
▁멤버	-11.686
▁들려주	-11.686
▁닮은	-11.686
▁저지른	-11.6862
말아	-11.6863
▁재촉	-11.6864
▁바빠	-11.6864
詩	-11.6864
▁발자국	-11.6865
▁심해졌	-11.6865
▁괜찮을까요	-11.6865
▁종말	-11.6866
667	-11.6867
▁최초	-11.6868
▁근까	-11.6869
▁누구든	-11.6871
▁세계관	-11.6873
▁씨앗	-11.6873
▁막말	-11.6875
▁커져	-11.6879
굼	-11.6882
▁갔던	-11.6884
2"/>	-11.6886
하기보다는	-11.6889
▁밝게	-11.6891
▁촛불	-11.6891
914	-11.6893
▁주워	-11.6897
하다보니	-11.6898
킬로미터	-11.69
▁포착	-11.6901
▁자녀들	-11.6902
▁세계화	-11.6902
▁비치	-11.6904
653	-11.6905
멜	-11.6906
▁뒤따라	-11.6908
▁1987	-11.6909
지말라고	-11.6909
▁물리적	-11.6911
073	-11.6911
▁부추	-11.6913
門	-11.6914
▁상호작용	-11.6923
종교	-11.6924
식품	-11.6925
▁추위	-11.6925
보인다	-11.6927
▁도와줄	-11.6927
▁갖추어	-11.6927
▁괜찮았	-11.6927
▁않으니	-11.6927
▁달려오	-11.6929
ᅲᅲᅲᅲᅲᅲ	-11.693
잣	-11.6933
▁애교	-11.6934
▁크레	-11.6934
▁왔다갔다	-11.6935
▁desc	-11.6936
▁유일하게	-11.6937
▁뱃속	-11.6942
▁내려온	-11.6949
▁밥상	-11.6953
234	-11.6955
십시요	-11.6957
▁매니저	-11.6959
선택	-11.6965
▁요소들	-11.6966
▁내세우	-11.6966
할께요	-11.6968
▁문헌	-11.6969
分	-11.6973
껌	-11.6973
윙	-11.6973
신옥	-11.6974
주십시오	-11.6975
▁아이돌	-11.6976
▁영문	-11.6976
▁바빠서	-11.6979
652	-11.698
켄	-11.6982
▁본격적인	-11.6982
992	-11.6984
▁깨끗한	-11.6985
▁주민등록	-11.6987
▁틀렸	-11.699
▁이해관계	-11.6991
判	-11.6991
389	-11.6993
▁기쁜	-11.6996
윗	-11.6998
▁머물러	-11.6999
썬	-11.7
셨는지	-11.7
혁준	-11.7001
▁손길	-11.7003
▁고마운	-11.7005
▁나을까요	-11.7005
▁대학병원	-11.7006
뉴스	-11.7012
996	-11.7012
336	-11.7014
엣	-11.7014
▁항소	-11.7014
▁육성	-11.7014
▁어휘	-11.7015
▁불량	-11.7018
▁리듬	-11.7018
못마땅	-11.7019
▁마땅히	-11.7021
▁고스란히	-11.7023
미안해	-11.7025
▁묻혀	-11.7025
▁복종	-11.7027
▁일제히	-11.7029
▁합법	-11.7032
▁공통점	-11.7032
▁많지만	-11.7032
매체	-11.7039
▁겸손	-11.704
▁이루어질	-11.7041
月	-11.7041
▁살아보	-11.7044
헉	-11.7044
▁향했다	-11.7049
德	-11.705
▁객관적으로	-11.705
654	-11.7051
▁준비해야	-11.7054
댐	-11.7055
▁정치권	-11.7056
▁어떻습니까	-11.7057
▁기자들	-11.706
▁극본	-11.7061
四	-11.7064
하셔도	-11.7065
467	-11.7072
843	-11.7072
the	-11.7073
▁자유주의	-11.7073
넵	-11.7073
폈	-11.7078
▁지쳐서	-11.7078
뤼	-11.7082
▁없어져	-11.7088
▁서있다	-11.7089
▁승소	-11.709
▁찾으려	-11.7092
▁앉으며	-11.7093
▁있을거에요	-11.7094
▁네덜란드	-11.7096
業	-11.7096
▁달걀	-11.7096
732	-11.7099
▁기다려야	-11.7099
▁위임	-11.7101
laughing	-11.7105
憲	-11.7105
▁별명	-11.7107
▁흰색	-11.711
▁떡볶이	-11.711
거같아서	-11.7111
▁없도록	-11.7111
▁늘어났	-11.7112
▁팔십	-11.7113
̈	-11.7113
▁어쩐지	-11.7119
▁아랍	-11.7124
▁보톡스	-11.7124
▁환불	-11.713
▁엉엉	-11.7135
진않	-11.7142
log	-11.7145
▁시련	-11.7147
▁중대한	-11.7147
슐	-11.7147
宗	-11.7147
개월간	-11.7152
▁음식점	-11.7152
▁시끄럽	-11.7161
▁밴드	-11.7161
▁선출	-11.7165
▁고구마	-11.7166
▁늙어	-11.7169
였으면	-11.7169
▁매달리	-11.717
ᅩ	-11.7175
▁분명하다	-11.7175
▁돌파	-11.7177
▁대북	-11.7178
꼈	-11.7188
保	-11.7189
▁후유증	-11.7189
▁위주로	-11.719
▁끝났다	-11.7191
▁케이블	-11.7194
072	-11.72
▁휴직	-11.7204
▁무의미	-11.7206
훼	-11.7207
▁테이프	-11.7208
▁치료법	-11.7209
▁문법	-11.7212
▁IMF	-11.7212
▁빨아	-11.7213
▁Le	-11.7215
▁공황장애	-11.7217
864	-11.7218
렘	-11.7221
▁소액	-11.7221
▁산출	-11.7226
픔	-11.723
城	-11.723
팥	-11.723
▁어린이들	-11.7232
▁떠올라	-11.7232
▁올라온	-11.7233
이성계	-11.7234
647	-11.7235
▁들려왔다	-11.7238
삶	-11.7248
▁앜ᄏᄏᄏ	-11.7248
▁환율	-11.7249
▁바람직한	-11.7249
▁ᄋᄋᄋ	-11.7249
▁안아주	-11.7253
789	-11.7257
力	-11.7258
▁어렸을때	-11.7264
▁마스크	-11.7265
▁힘들때	-11.7266
▁갑상선	-11.7268
▁청취자	-11.7268
▁바랄	-11.7275
▁살았습니다	-11.7276
▁이해해주	-11.7284
755	-11.7287
855	-11.7293
▁앨범	-11.7298
하자마자	-11.7298
▁논술	-11.73
듭니다	-11.7301
▁미친듯이	-11.7301
__11/	-11.7305
ast	-11.7307
▁안녕히	-11.7309
827	-11.7314
굿	-11.7317
▁헤어져	-11.7319
갈때	-11.7319
▁돈벌	-11.732
첫	-11.7327
▁복원	-11.7327
▁때때로	-11.733
▁합리적인	-11.7333
▁힘드셨	-11.7336
569	-11.7337
▁옹호	-11.7337
▁부담스럽	-11.7337
▁은퇴	-11.734
che	-11.7341
▁가능하다면	-11.7342
▁심해요	-11.7345
포트	-11.7345
▁멘탈	-11.7348
▁느껴진다	-11.7348
▁옮긴	-11.7351
▁유언	-11.7352
▁제조업	-11.7352
▁세웠다	-11.7355
223	-11.7356
▁왼손	-11.7356
돌리	-11.7358
▁1950	-11.7362
▁가리키며	-11.7362
▁배고파	-11.7363
trunc	-11.7367
▁초청	-11.7371
▁비례	-11.7371
▁성매매	-11.7371
832	-11.7372
▁환자들	-11.7376
호흡곤란	-11.7376
AN	-11.7378
▁했었습니다	-11.7383
▁소극적	-11.7385
738	-11.7386
▁예정입니다	-11.7387
페이스	-11.7387
▁02	-11.7388
▁궁금증	-11.7389
▁지금껏	-11.7391
▁계약금	-11.7391
727	-11.7393
663	-11.7393
▁어떡해야	-11.7394
▁넘어갈	-11.7401
▁부모님한테	-11.7402
▁치켜	-11.7403
쌩	-11.7405
▁조금이나마	-11.7405
838	-11.7407
644	-11.7407
아닙니다	-11.7408
쪼	-11.7408
▁즐거워	-11.7409
▁배고프	-11.741
▁흑흑	-11.741
▁유권자	-11.7411
▁사고방식	-11.7412
▁당신들	-11.7416
882	-11.7417
▁알레르기	-11.7419
▁PR	-11.7423
얇	-11.7426
▁몇가지	-11.7428
▁도쿄	-11.743
▁보여준	-11.7432
五	-11.7433
▁스위스	-11.7433
388	-11.7437
▁자괴감	-11.7438
083	-11.7442
▁창밖	-11.7445
332	-11.7448
def	-11.7448
거니와	-11.7451
▁싶었어요	-11.7452
▁깨달았	-11.7454
▁소나무	-11.7454
덩어리	-11.7461
▁별도로	-11.7466
▁닮아	-11.7468
889	-11.747
▁묻는다	-11.7471
則	-11.7471
▁다양성	-11.7472
▁근심	-11.7474
▁추상적	-11.748
▁오피스텔	-11.7481
▁항복	-11.7481
▁엘리	-11.7484
▁계몽	-11.7484
였으며	-11.7487
놓으	-11.7488
▁경찰관	-11.7491
▁세계대전	-11.7491
▁고혈압	-11.7495
▁주님	-11.7495
많아	-11.7497
▁미사일	-11.7501
지마세요	-11.7503
ack	-11.751
췌	-11.7514
▁장례식	-11.7514
▁지칭	-11.7515
▁흔한	-11.7516
원칙	-11.7519
▁더군다나	-11.7519
▁노무사	-11.752
아무리	-11.752
▁괴로움	-11.7524
▁탄핵	-11.753
▁이끄는	-11.7531
▁되겠죠	-11.7531
었으므로	-11.7532
승재	-11.7532
커피	-11.7533
▁혹시라도	-11.7533
쏙	-11.7533
845	-11.7535
템	-11.7536
376	-11.754
898	-11.7541
보았지만	-11.7542
▁외할머니	-11.7543
▁소비자들	-11.7556
▁있었음	-11.7558
펼	-11.7559
▁답답합니다	-11.7562
▁피의자	-11.7563
▁만들어낸	-11.7566
▁발작	-11.7566
깁	-11.7566
▁헌데	-11.7567
▁어젯밤	-11.7567
891	-11.7574
아파트	-11.7574
뚤	-11.7577
힙	-11.7577
866	-11.7578
▁혼합	-11.7585
▁빌딩	-11.7585
▁시작했는데	-11.7585
治	-11.7586
뺐	-11.7586
北	-11.7587
▁사직서	-11.7589
▁다가온다	-11.7589
▁수면제	-11.759
▁언제든	-11.7599
▁처음이라	-11.7599
226	-11.7605
▁사라질	-11.7606
▁있으리라	-11.7611
▁어딨	-11.7612
▁해결해야	-11.7612
cy	-11.7615
▁씁쓸	-11.7616
▁INT	-11.7616
테니까요	-11.7616
▁숙이고	-11.762
關	-11.7625
▁울컥	-11.7629
767	-11.7633
▁관행	-11.7633
▁어쩜	-11.7634
핍	-11.7639
▁찔러	-11.7642
▁생각했어요	-11.7647
994	-11.7656
▁손짓	-11.7658
▁느껴질	-11.7662
ood	-11.7662
라운드	-11.7663
▁빌린	-11.7664
▁관광객	-11.7665
오른	-11.7665
▁깔려	-11.7666
▁빈곤	-11.7668
▁마이너스	-11.7679
▁치료받	-11.7679
224	-11.768
▁졸려	-11.7682
▁당연하다	-11.7685
▁엔진	-11.7685
캔	-11.7687
▁않더라도	-11.7691
▁필름	-11.7693
꽝	-11.7693
▁맡았	-11.7694
▁멕시코	-11.7698
▁출퇴근	-11.7698
수도있	-11.7702
▁끼워	-11.7706
▁달라졌	-11.7708
▁성찰	-11.7708
▁Pro	-11.771
▁백작	-11.7712
白	-11.7713
울먹	-11.7714
ide	-11.7717
▁조만간	-11.7723
▁외쳤다	-11.7725
原	-11.7728
vocal	-11.7728
▁사모님	-11.773
됐어요	-11.7731
▁아프네요	-11.7733
▁당나라	-11.7736
▁전립선	-11.7738
▁소리치	-11.7742
하옵니다	-11.7749
438	-11.775
함께	-11.775
▁원활	-11.7758
▁혼내	-11.7759
▁생리통	-11.776
763	-11.7762
於	-11.7762
▁(4)	-11.7765
▁공짜	-11.7765
745	-11.7767
▁뽀뽀	-11.7767
▁야외	-11.7767
멋	-11.7768
▁그리움	-11.777
▁올라갈	-11.777
협력	-11.7772
▁임차인	-11.7772
▁자신들	-11.7774
▁1,000	-11.7775
837	-11.7778
▁공존	-11.7783
▁있었죠	-11.779
뜨려	-11.779
平	-11.7791
http	-11.7791
ear	-11.7793
ost	-11.7795
번씩	-11.7798
섞	-11.78
▁힘들었던	-11.7804
됐던	-11.7804
禮	-11.7806
밸	-11.7806
aw	-11.7806
▁잡아먹	-11.7811
▁바꿨	-11.7813
실험	-11.7816
▁아이템	-11.7818
드라구요	-11.7819
▁오른손	-11.7819
▁상태이고	-11.7821
▁이메일	-11.7823
《	-11.7825
스러움	-11.7826
ook	-11.7829
뿌리	-11.7836
▁매각	-11.7843
쯔	-11.7846
▁택배	-11.7849
▁잡힌	-11.7855
ng	-11.7855
뽕	-11.7856
343	-11.7856
▁휩쓸	-11.7861
337	-11.7862
아픈	-11.7865
▁2018	-11.7868
▁닥치	-11.7869
합창	-11.7871
▁살았는데	-11.7873
▁마술	-11.7874
▁다양하게	-11.7876
▁보내세요	-11.7877
▁맹세	-11.7877
▁집중력	-11.7882
▁그만둔	-11.7885
▁여유증	-11.789
찻	-11.7891
▁정신병원	-11.7892
▁군사들	-11.7896
슘	-11.7896
▁귀여워	-11.7896
▁부딪치	-11.7898
▁한나라당	-11.7901
899	-11.7903
通	-11.7906
888	-11.7907
▁당첨	-11.7911
▁질염	-11.7921
했네요	-11.7932
▁벌써부터	-11.794
▁롯데	-11.7941
▁그러세요	-11.7941
싶지않	-11.7942
737	-11.7944
렉스	-11.7944
녘	-11.7946
AT	-11.7946
무엇	-11.7949
옛	-11.7953
643	-11.7953
▁생명체	-11.7955
▁금속	-11.7957
▁비켜	-11.7959
▁견제	-11.7962
▁금융기관	-11.7963
▁낮잠	-11.7964
▁He	-11.7965
▁바둑	-11.7972
▁활약	-11.7973
▁형성된	-11.7973
▁긁어	-11.7975
찾아	-11.7975
▁상대방에게	-11.7975
▁그제서야	-11.7976
시간동안	-11.7977
▁비정상	-11.7981
▁정신없이	-11.7985
士	-11.7986
366	-11.7988
▁차근차근	-11.7996
▁좋아졌	-11.7996
▁꺼려	-11.7997
고마워	-11.7998
▁여쭤보	-11.7999
▁있답니다	-11.8002
元	-11.8006
▁종결	-11.8009
▁독촉	-11.8014
777	-11.8015
맵	-11.8021
▁작품들	-11.8022
▁빼놓	-11.8024
개씩	-11.8024
▁청춘	-11.8024
mer	-11.8025
375	-11.8025
칩니다	-11.8027
펑	-11.8036
+?/	-11.804
▁보여줄	-11.8044
칩	-11.8055
▁쌍방	-11.8063
▁제국주의	-11.8067
짙	-11.8071
년만에	-11.8074
▁밟아	-11.8078
▁예전엔	-11.8079
任	-11.8082
ace	-11.8082
되었기	-11.8085
▁시리즈	-11.8087
증명서	-11.8087
▁울타리	-11.8087
▁녹색	-11.8088
IP	-11.8089
▁있겠습니까	-11.8092
▁두뇌	-11.81
떴	-11.8101
▁말씀드린	-11.8105
삼촌	-11.8109
▁1988	-11.8111
在	-11.8112
change	-11.8112
▁열흘	-11.8113
▁고민중	-11.8114
▁맛집	-11.8115
後	-11.8117
▁끌어내	-11.8123
ᄏᄀᄏᄀ	-11.8123
ER	-11.8123
▁고함	-11.8125
古	-11.8127
깬	-11.8128
▁옆구리	-11.8128
▁종족	-11.813
▁비추어	-11.8133
▁질렀다	-11.8136
878	-11.8137
덕배	-11.8143
漢	-11.8143
숍	-11.8143
▁끝없이	-11.8162
▁가톨릭	-11.8163
立	-11.8163
集	-11.8163
▁괜찮아질	-11.8167
▁뻔뻔	-11.8169
entry	-11.817
386	-11.8173
▁아부지	-11.8173
883	-11.8174
▁휘두르	-11.8174
▁애들한테	-11.8178
▁pro	-11.8178
▁워싱턴	-11.8179
▁하룻밤	-11.8179
min	-11.818
▁살펴본	-11.8181
늑	-11.8183
▁폭풍	-11.8186
하지마세요	-11.819
▁뿌듯	-11.8191
▁진찰	-11.8195
▁물건들	-11.8204
공동체	-11.8209
▁잠든	-11.8211
778	-11.8213
▁트러블	-11.8215
▁푸르	-11.8217
▁방법론	-11.8221
특히	-11.8224
▁가져올	-11.8226
曰	-11.823
▁좋을까	-11.8235
▁흘리며	-11.8235
命	-11.8235
▁폭탄	-11.8241
▁극대화	-11.8241
君	-11.8245
췄	-11.8246
▁위로해주	-11.8247
▁관측	-11.8249
▁소리지르	-11.8251
▁휩싸	-11.8251
▁태어날	-11.8251
▁인맥	-11.8251
▁모조리	-11.8251
▁응원합니다	-11.8253
▁박혀	-11.8254
★	-11.8256
▁어딨어	-11.8256
▁무섭습니다	-11.8261
▁비중격	-11.8261
▁무얼	-11.8264
и	-11.8266
合	-11.8271
놓는다	-11.8275
ᅣ	-11.8277
묻	-11.8279
908	-11.828
▁지급명령	-11.8288
르륵	-11.8293
▁연결되어	-11.8296
▁여느	-11.8297
▁급격히	-11.8297
▁명확하게	-11.8297
▁돌려받	-11.8302
▁언젠간	-11.8303
▁튀어나와	-11.8303
907	-11.8304
하셨으면	-11.8306
▁달빛	-11.8306
▁su	-11.8307
플러	-11.8307
▁어느덧	-11.8309
е	-11.8313
724	-11.8314
▁타고난	-11.8316
▁해당되는	-11.832
▁LG	-11.8328
륨	-11.8328
▁정해져	-11.8332
▁가고싶	-11.8332
▁보십니까	-11.8333
▁아랫배	-11.8334
▁주식시장	-11.8338
▁구성되어	-11.8338
셉	-11.8339
▁특권	-11.8339
▁빌려준	-11.8344
그나저나	-11.8344
▁결핍	-11.8345
▁자부심	-11.8351
융	-11.8354
▁학창시절	-11.836
▁타이밍	-11.836
▁떨어지면	-11.8361
▁파산신청	-11.8361
▁추락	-11.8367
▁친밀	-11.8374
▁않으시	-11.8375
하시오	-11.8375
▁중얼거렸다	-11.8375
돋	-11.8377
캡	-11.8381
722	-11.8383
▁박사님	-11.8386
作	-11.8386
▁마카님께	-11.8393
뻤	-11.8396
▁새누리당	-11.8402
▁사귈	-11.8402
▁많았어요	-11.8404
▁튀어나온	-11.8407
펀드	-11.841
對	-11.8412
▁ᄋᄌ	-11.8413
877	-11.8413
▁적극적	-11.8417
ner	-11.8421
▁막대한	-11.8422
▁설령	-11.8426
▁탁월한	-11.8428
▁서랍	-11.8429
善	-11.8433
▁짧아	-11.8434
연맹	-11.8435
議	-11.8438
▁짙은	-11.8439
▁올라왔	-11.844
쏘	-11.8441
▁비춰	-11.8443
ove	-11.8448
全	-11.8449
▁선뜻	-11.8451
멎	-11.8454
것같은데	-11.8461
▁받으셨	-11.8463
▁탐색	-11.8463
▁받아들였	-11.8464
팟	-11.8465
변호사	-11.8468
▁이순신	-11.8471
333	-11.8481
834	-11.8482
모델	-11.8485
▁발가락	-11.8486
734	-11.8492
833	-11.8497
햇어	-11.8499
▁한심해	-11.85
▁않았습니까	-11.8501
맣	-11.8502
▁20%	-11.8503
▁작성자님	-11.8505
638	-11.8508
▁앉았	-11.8512
▁유쾌	-11.8517
민주주의	-11.8519
764	-11.8523
▁재테크	-11.8523
▁햇볕	-11.8528
▁글쓴이분	-11.8532
▁원숭이	-11.8534
823	-11.8535
▁좋아하시	-11.8539
233	-11.854
▁불편함	-11.854
▁현황	-11.8541
▁몰락	-11.8542
▁헤헤	-11.8546
▁주관적	-11.8547
port	-11.8549
聖	-11.855
하셧	-11.8551
▁개구리	-11.8552
876	-11.8555
▁학교생활	-11.8558
신욱	-11.856
팁	-11.8614
뺄	-11.8624
슥	-11.864
썻	-11.864
石	-11.8656
`	-11.8673
十	-11.8705
헝	-11.8737
넓	-11.8743
칵	-11.8776
使	-11.8781
思	-11.8814
닙	-11.883
곧	-11.8833
웬	-11.8876
갖	-11.889
夫	-11.8891
댜	-11.8896
맏	-11.8901
太	-11.8902
깼	-11.8918
女	-11.8918
좇	-11.8924
욤	-11.8946
숲	-11.8972
仁	-11.8979
듦	-11.8996
쿼	-11.9012
田	-11.9051
間	-11.9063
갤	-11.9085
갚	-11.9093
겻	-11.9102
헨	-11.9113
쫒	-11.9113
陽	-11.9119
첼	-11.913
́	-11.9158
可	-11.9169
괘	-11.9175
헬	-11.9187
쉐	-11.9198
部	-11.9204
핫	-11.9222
볍	-11.9243
잊	-11.9244
궂	-11.9261
是	-11.9278
햐	-11.9289
홧	-11.9341
和	-11.9364
퓨	-11.9387
鄭	-11.9399
院	-11.9399
돗	-11.9399
語	-11.941
얕	-11.9422
ᅢ	-11.9428
읊	-11.9439
휠	-11.9439
횡	-11.9449
젖	-11.9472
툰	-11.9509
情	-11.9521
信	-11.9562
武	-11.9574
듭	-11.9579
쉼	-11.958
빗	-11.961
龍	-11.9639
約	-11.9663
맙	-11.9665
슷	-11.9735
󰡔	-11.9746
󰡕	-11.9752
京	-11.977
江	-11.9794
둠	-11.9809
美	-11.9812
뤄	-11.982
發	-11.9843
馬	-11.9867
줫	-11.9885
能	-11.9903
戰	-11.9903
쁨	-11.9904
퐁	-11.9946
淸	-11.9958
ᄑ	-11.9971
늄	-11.9989
第	-11.9989
先	-12.0007
▶	-12.0026
а	-12.0038
◆	-12.0051
꼼	-12.0057
非	-12.0063
늪	-12.0094
員	-12.01
【	-12.0113
땀	-12.0132
훑	-12.0137
萬	-12.0144
띵	-12.0156
훨	-12.0163
】	-12.0181
報	-12.0194
츄	-12.0213
엥	-12.0228
樂	-12.0244
꿍	-12.0251
닳	-12.0257
깍	-12.0292
ᅭ	-12.0295
샹	-12.0295
찹	-12.0295
촬	-12.0314
反	-12.0333
쌌	-12.0365
딧	-12.0371
q	-12.0372
°	-12.0384
딕	-12.0384
푹	-12.0408
굉	-12.0409
잤	-12.0415
然	-12.0416
風	-12.0422
깝	-12.0455
死	-12.0467
룻	-12.0513
캉	-12.0532
뷔	-12.0535
府	-12.0545
얗	-12.0551
濟	-12.0558
샐	-12.0617
툼	-12.0619
觀	-12.0623
基	-12.0636
帝	-12.0689
폼	-12.0705
쵸	-12.0709
光	-12.0729
見	-12.0742
헷	-12.0748
要	-12.0775
괜	-12.078
쿤	-12.0782
解	-12.0795
녔	-12.0799
期	-12.0815
잦	-12.082
朴	-12.0828
身	-12.0835
낳	-12.0851
得	-12.0862
産	-12.0882
팎	-12.0929
債	-12.0943
臣	-12.0962
眞	-12.1017
튕	-12.1017
흰	-12.1024
※	-12.1072
삽	-12.1107
꿨	-12.1111
н	-12.1113
훗	-12.1161
훅	-12.1175
쩝	-12.1175
故	-12.1175
긔	-12.1189
с	-12.1196
與	-12.1203
텅	-12.1219
봇	-12.1229
컹	-12.123
쉰	-12.1233
짚	-12.1247
꼰	-12.1265
쬐	-12.1335
Z	-12.1337
챘	-12.1349
\	-12.1357
寺	-12.1371
굳	-12.1374
△	-12.1385
形	-12.1392
젊	-12.1396
張	-12.1406
멧	-12.1406
벳	-12.1413
힝	-12.1413
챠	-12.142
쩡	-12.1448
司	-12.147
퀸	-12.1477
챈	-12.1491
林	-12.1491
式	-12.1506
깽	-12.1506
資	-12.1513
냠	-12.1513
쐬	-12.1513
쏜	-12.1549
求	-12.1556
뀌	-12.1575
川	-12.1585
如	-12.1606
뤘	-12.1635
낡	-12.1649
겅	-12.165
來	-12.173
條	-12.1774
選	-12.1788
밌	-12.1792
낑	-12.1796
花	-12.1818
▲	-12.1825
씻	-12.1874
찐	-12.1874
佛	-12.1884
꼿	-12.1907
텀	-12.1922
홈	-12.1949
族	-12.1959
휜	-12.1966
맴	-12.1974
쳣	-12.1981
헛	-12.1986
の	-12.1989
덟	-12.2008
當	-12.2011
옮	-12.2017
꺄	-12.2019
빚	-12.2033
老	-12.2042
重	-12.2042
氏	-12.2057
뒷	-12.2063
錄	-12.2064
쭙	-12.2064
字	-12.2072
土	-12.2072
뵙	-12.2096
쪘	-12.211
機	-12.2117
周	-12.2117
뱃	-12.2125
늬	-12.2126
將	-12.2148
問	-12.2178
度	-12.2178
都	-12.2224
숯	-12.2255
朝	-12.2271
짬	-12.2271
開	-12.2294
쏴	-12.2301
木	-12.2309
촘	-12.2309
펐	-12.2325
좆	-12.2336
圖	-12.2348
겜	-12.2348
왁	-12.2356
닼	-12.2364
☆	-12.2371
넼	-12.2403
펌	-12.2403
뽑	-12.2406
럿	-12.2407
쌔	-12.2411
入	-12.2434
뱀	-12.2446
텝	-12.2458
륭	-12.2458
끓	-12.247
킷	-12.2473
華	-12.2481
●	-12.2518
줏	-12.2521
我	-12.2537
걔	-12.2558
未	-12.2568
웟	-12.2608
팠	-12.2618
콰	-12.2664
甲	-12.2688
裁	-12.2688
잿	-12.2688
갇	-12.2704
運	-12.2704
師	-12.2737
빅	-12.2753
젼	-12.2769
受	-12.2769
數	-12.2777
눴	-12.2777
春	-12.2793
옇	-12.2793
支	-12.2826
엾	-12.2834
黃	-12.2842
얍	-12.2842
😊	-12.2892
엎	-12.2909
統	-12.2924
됏	-12.2924
歌	-12.2924
겡	-12.2933
잌	-12.2933
̆	-12.2973
닿	-12.2983
堂	-12.2991
處	-12.2991
깅	-12.2999
表	-12.3016
떤	-12.3039
多	-12.3049
넉	-12.3066
祖	-12.3082
깟	-12.3099
얽	-12.3116
株	-12.3124
맷	-12.3133
넛	-12.3133
붉	-12.3138
節	-12.3183
現	-12.3217
쳇	-12.3243
律	-12.3243
異	-12.3251
證	-12.3268
뎈	-12.3294
뒹	-12.3302
九	-12.3337
닛	-12.3345
〔	-12.3354
私	-12.3354
別	-12.3388
想	-12.3388
擧	-12.3406
곸	-12.3414
т	-12.3432
빳	-12.344
탔	-12.345
界	-12.3475
р	-12.3519
끽	-12.3519
〕	-12.3527
河	-12.3527
。	-12.3539
六	-12.3554
볕	-12.3571
샛	-12.3571
契	-12.3571
・	-12.358
뛸	-12.358
雲	-12.358
콧	-12.3583
짤	-12.36
뭄	-12.3606
냔	-12.3615
퀘	-12.3615
돔	-12.3633
令	-12.3651
決	-12.3668
▴	-12.3704
兵	-12.3713
效	-12.3722
탭	-12.3758
靑	-12.3758
킁	-12.3767
章	-12.3784
百	-12.3802
空	-12.3811
共	-12.3848
請	-12.3848
슭	-12.3857
志	-12.3866
火	-12.3875
쫑	-12.3875
찝	-12.3893
靈	-12.3911
첸	-12.3911
流	-12.392
좁	-12.3945
趙	-12.3957
넥	-12.3993
멕	-12.3993
規	-12.3993
八	-12.4002
常	-12.4003
此	-12.4011
룽	-12.4039
땜	-12.4099
껑	-12.4104
닦	-12.4113
過	-12.4132
넸	-12.4141
욥	-12.4141
市	-12.415
目	-12.4178
뛴	-12.4188
덧	-12.4196
崔	-12.4206
音	-12.4206
孫	-12.4216
뫼	-12.4225
몫	-12.4237
手	-12.4272
몹	-12.4291
텁	-12.4376
킵	-12.4386
益	-12.4405
앎	-12.4415
탬	-12.4424
父	-12.4443
由	-12.4463
뼛	-12.4463
面	-12.4482
샀	-12.4496
옅	-12.4511
至	-12.452
눕	-12.4566
告	-12.4569
己	-12.4569
é	-12.4627
쨍	-12.4657
홱	-12.4657
😭	-12.4663
펫	-12.4666
類	-12.4686
펙	-12.4694
낰	-12.4696
덥	-12.4704
싣	-12.4705
母	-12.4706
꽂	-12.4734
野	-12.4735
玉	-12.4745
宮	-12.4755
쟤	-12.4784
짠	-12.4784
害	-12.4785
큭	-12.4785
修	-12.4785
獨	-12.4815
뗄	-12.4815
숴	-12.4815
욬	-12.4815
팜	-12.4815
빔	-12.4825
앰	-12.4835
텃	-12.4835
씽	-12.4865
먄	-12.4875
申	-12.4885
羅	-12.4885
쌓	-12.4906
變	-12.4915
얔	-12.4925
툭	-12.4936
容	-12.4965
밧	-12.4975
典	-12.4995
즌	-12.5
짢	-12.5016
귄	-12.5018
쉴	-12.5039
責	-12.5046
캘	-12.5097
福	-12.5097
겋	-12.5108
何	-12.5128
꿉	-12.5128
벡	-12.5128
찧	-12.5128
進	-12.5128
質	-12.5138
吉	-12.518
永	-12.519
덫	-12.519
핥	-12.52
七	-12.5242
件	-12.5294
헹	-12.5304
핳	-12.5325
₩	-12.5336
訴	-12.5346
갠	-12.5353
諸	-12.5357
造	-12.5357
떻	-12.5379
맑	-12.5396
숟	-12.5431
格	-12.5441
딤	-12.5441
랠	-12.5452
쿄	-12.5468
깻	-12.5473
틋	-12.5484
題	-12.5526
얏	-12.5526
限	-12.5526
밝	-12.5535
忠	-12.5537
딥	-12.5558
횃	-12.5569
宋	-12.558
里	-12.558
흩	-12.56
精	-12.5601
財	-12.5601
總	-12.5601
▷	-12.5612
잰	-12.5612
샴	-12.5623
팸	-12.5634
親	-12.5645
位	-12.5645
⋅	-12.5655
〈	-12.5667
場	-12.5677
食	-12.5688
源	-12.5699
젝	-12.5699
к	-12.5721
罪	-12.5731
省	-12.5742
앱	-12.5777
識	-12.5786
■	-12.5789
今	-12.5797
口	-12.5797
쩜	-12.5799
聞	-12.5808
因	-12.5819
в	-12.5819
됀	-12.5819
앓	-12.5822
興	-12.583
頭	-12.5841
횟	-12.5873
쭐	-12.5885
곪	-12.5908
象	-12.5941
千	-12.5952
失	-12.5952
話	-12.5986
島	-12.5986
헥	-12.5997
즁	-12.6008
콱	-12.6008
縣	-12.6019
닠	-12.6019
캄	-12.6042
걷	-12.6047
惡	-12.6053
洪	-12.6064
읎	-12.6076
♬	-12.6121
넝	-12.6132
죵	-12.6132
맺	-12.6139
촐	-12.6144
쎈	-12.6144
從	-12.6166
둣	-12.6178
곀	-12.6178
次	-12.6223
숩	-12.6246
젯	-12.6246
헿	-12.6246
뵐	-12.6258
易	-12.6269
改	-12.627
탠	-12.6292
л	-12.6292
續	-12.6293
調	-12.6327
욧	-12.6327
깰	-12.6339
잃	-12.6346
愛	-12.635
엷	-12.6385
뽐	-12.6397
셸	-12.6397
係	-12.6409
直	-12.6409
廣	-12.6432
郞	-12.6491
村	-12.6502
洞	-12.6502
콥	-12.6526
極	-12.655
댑	-12.655
맬	-12.655
取	-12.6574
起	-12.6609
黨	-12.6633
뮌	-12.6657
禪	-12.6669
찡	-12.6671
唐	-12.6681
居	-12.6693
돛	-12.6693
씰	-12.6705
짘	-12.6705
徐	-12.6717
路	-12.6729
價	-12.6753
險	-12.6777
茶	-12.6789
뇽	-12.6789
짭	-12.6789
英	-12.6837
特	-12.6887
꽈	-12.6887
孝	-12.6887
加	-12.6924
陰	-12.6948
☺	-12.696
깄	-12.6961
걘	-12.6973
去	-12.6973
色	-12.6985
守	-12.6985
썰	-12.6991
얹	-12.7017
補	-12.7047
쥴	-12.7047
ᄍ	-12.706
젭	-12.7085
祭	-12.711
草	-12.711
等	-12.7122
펭	-12.7122
良	-12.7122
感	-12.7122
委	-12.7135
늙	-12.7144
됩	-12.7159
營	-12.7173
쯧	-12.7185
乙	-12.7198
承	-12.7198
松	-12.721
術	-12.721
맸	-12.7248
핼	-12.7261
交	-12.7274
監	-12.7287
星	-12.7299
念	-12.7299
存	-12.7312
☎	-12.7338
虛	-12.7363
뺑	-12.7376
넴	-12.7389
刑	-12.7389
앨	-12.7412
$	-12.7426
섣	-12.7428
혓	-12.7441
示	-12.7454
例	-12.7454
酒	-12.748
品	-12.748
兩	-12.748
計	-12.7493
—	-12.7506
必	-12.7506
皇	-12.7519
麗	-12.7519
옌	-12.7519
뉜	-12.7532
富	-12.7558
功	-12.7571
§	-12.7571
景	-12.7571
若	-12.7571
郡	-12.7584
尹	-12.7597
뭍	-12.7597
船	-12.7597
矣	-12.761
號	-12.7624
科	-12.7624
⊙	-12.7637
止	-12.765
띈	-12.765
農	-12.7663
考	-12.7677
걍	-12.768
儒	-12.7689
工	-12.7703
男	-12.7703
給	-12.7703
齊	-12.773
욘	-12.7743
遺	-12.7756
團	-12.7756
챌	-12.7756
臺	-12.7756
폄	-12.777
亂	-12.777
밉	-12.7774
近	-12.7783
떵	-12.7797
쨋	-12.7797
儀	-12.7823
숀	-12.7864
랖	-12.7877
復	-12.7891
局	-12.7891
順	-12.7904
뮬	-12.7904
흙	-12.7922
옳	-12.7924
￼	-12.7932
뮈	-12.7945
鄕	-12.7986
丁	-12.8014
꼐	-12.8041
器	-12.8055
果	-12.8055
짧	-12.8063
멤	-12.8082
智	-12.8096
뻬	-12.8096
種	-12.8096
轉	-12.811
샬	-12.811
編	-12.8124
序	-12.8124
慶	-12.8193
탉	-12.8193
뗀	-12.8207
職	-12.8235
쏠	-12.8246
版	-12.8249
넙	-12.8263
슛	-12.8263
웡	-12.8263
둡	-12.8268
許	-12.8291
핌	-12.832
齋	-12.8334
꾹	-12.836
案	-12.8376
쟝	-12.8376
쉿	-12.8405
昌	-12.8405
秋	-12.8419
땄	-12.8448
柳	-12.8462
領	-12.8491
朱	-12.8505
謂	-12.8519
谷	-12.852
卷	-12.8534
舊	-12.8534
賢	-12.8549
갗	-12.8563
̊	-12.8591
井	-12.8592
强	-12.8592
結	-12.8606
😘	-12.8621
建	-12.8621
應	-12.8636
達	-12.865
像	-12.8665
首	-12.8679
根	-12.8679
왱	-12.8679
봅	-12.8692
敬	-12.8694
壽	-12.8694
宣	-12.8694
━	-12.8709
춥	-12.8727
쌉	-12.8753
┃	-12.8797
덱	-12.8797
策	-12.8827
큘	-12.8827
辭	-12.8842
旨	-12.8857
遠	-12.8857
켤	-12.8902
派	-12.8917
紀	-12.8917
好	-12.8932
쫀	-12.8947
꿩	-12.8962
半	-12.8977
引	-12.9022
섴	-12.9022
俗	-12.9052
聲	-12.9068
◇	-12.9068
管	-12.9083
初	-12.9083
畵	-12.9114
寶	-12.9129
팻	-12.9144
秦	-12.9175
館	-12.9175
始	-12.9175
녁	-12.918
哲	-12.919
땔	-12.919
숏	-12.919
殿	-12.9206
뭬	-12.9206
客	-12.9221
仙	-12.9237
欲	-12.9253
殺	-12.9268
構	-12.933
놉	-12.933
뭣	-12.9342
歸	-12.9362
껐	-12.9362
亦	-12.9377
戶	-12.9377
옐	-12.9377
및	-12.9405
믈	-12.9409
致	-12.9456
設	-12.9456
養	-12.9456
吳	-12.9472
꽥	-12.9472
指	-12.9488
짰	-12.9488
奇	-12.952
곶	-12.9536
足	-12.9552
項	-12.9552
泰	-12.9584
뎁	-12.9584
뼉	-12.9616
歷	-12.9632
밈	-12.9632
쇳	-12.9632
尙	-12.9648
띄	-12.9648
香	-12.9664
消	-12.9664
犯	-12.968
送	-12.968
떳	-12.9697
少	-12.9697
鎭	-12.9712
狀	-12.9713
놧	-12.9713
活	-12.9729
衆	-12.9745
뎀	-12.9745
寧	-12.9794
뺌	-12.9794
難	-12.9794
졍	-12.9811
헙	-12.9811
멓	-12.9844
햌	-12.9844
回	-12.986
貴	-12.9877
梁	-12.991
乎	-12.9943
他	-12.9943
役	-12.9976
빕	-12.9993
겉	-12.9997
左	-13.001
償	-13.001
衛	-13.001
夢	-13.0043
提	-13.0043
護	-13.006
썅	-13.006
쥘	-13.006
禁	-13.011
準	-13.011
꼇	-13.011
뎃	-13.011
病	-13.0111
◎	-13.0127
投	-13.0144
玄	-13.0144
촛	-13.0161
向	-13.0161
參	-13.0178
爭	-13.0195
印	-13.0195
춧	-13.0195
퉤	-13.0212
連	-13.023
쁩	-13.023
劉	-13.0247
校	-13.0264
滿	-13.0264
깎	-13.0307
д	-13.0315
背	-13.0333
陳	-13.0333
房	-13.035
̋	-13.035
얜	-13.035
′	-13.0367
勢	-13.0384
ᅠ	-13.0385
視	-13.0385
괭	-13.0385
卽	-13.0402
點	-13.0402
室	-13.042
程	-13.0437
❷	-13.0454
句	-13.0454
及	-13.0472
線	-13.0472
뎠	-13.0472
收	-13.0507
묽	-13.0507
育	-13.0525
範	-13.0542
絶	-13.0542
藏	-13.0542
賣	-13.056
靜	-13.0578
渡	-13.0578
夏	-13.0595
認	-13.0595
텨	-13.0612
洋	-13.0613
衣	-13.0613
갭	-13.0613
솟	-13.0642
車	-13.0649
吾	-13.0649
雄	-13.0667
곯	-13.0667
캅	-13.0685
孔	-13.0702
∙	-13.0702
曲	-13.0702
괸	-13.072
끙	-13.0756
콸	-13.0756
м	-13.0756
엊	-13.0774
斷	-13.0793
뚫	-13.0826
餘	-13.0847
돠	-13.0847
望	-13.0866
덮	-13.0879
移	-13.0883
휼	-13.0902
醫	-13.092
勞	-13.092
系	-13.0938
훠	-13.0975
還	-13.0975
魏	-13.0994
틔	-13.0994
앴	-13.1012
섯	-13.1026
셤	-13.1068
팰	-13.1068
と	-13.1086
料	-13.1086
榮	-13.1087
챗	-13.1105
잽	-13.1143
紅	-13.1143
被	-13.1143
持	-13.1161
再	-13.1161
됄	-13.118
蘇	-13.118
벵	-13.1199
勝	-13.1218
置	-13.1236
孟	-13.1237
審	-13.1237
登	-13.1256
힣	-13.1294
境	-13.1313
植	-13.1332
離	-13.1351
퀵	-13.1351
옄	-13.1351
熙	-13.1389
▣	-13.1389
♣	-13.1389
멱	-13.1408
遊	-13.1408
査	-13.1408
才	-13.1409
血	-13.1428
휑	-13.1428
섀	-13.1428
뾰	-13.1447
짼	-13.1466
放	-13.1467
區	-13.1467
釋	-13.1486
覺	-13.1505
雜	-13.1505
◈	-13.1525
伯	-13.1544
볐	-13.1544
뺏	-13.1551
具	-13.1564
誠	-13.1603
略	-13.1603
웩	-13.1603
券	-13.1622
п	-13.1622
于	-13.1641
夷	-13.1642
服	-13.1701
溪	-13.1721
談	-13.1721
友	-13.1741
莊	-13.1741
閣	-13.1741
갘	-13.1741
칡	-13.1741
各	-13.1741
쫌	-13.1751
願	-13.1761
散	-13.1761
仲	-13.1761
素	-13.1761
訟	-13.1761
兒	-13.1781
▽	-13.1801
魚	-13.1801
終	-13.1821
最	-13.1841
盧	-13.1841
놋	-13.1841
웍	-13.1841
픕	-13.1841
씸	-13.1861
亭	-13.1861
接	-13.1861
雨	-13.1881
秀	-13.1881
御	-13.1902
湖	-13.1902
落	-13.1922
域	-13.1922
냘	-13.1922
末	-13.1922
샜	-13.1942
著	-13.1942
뗏	-13.1962
藝	-13.1962
〃	-13.1983
竹	-13.1983
낯	-13.1996
組	-13.2003
넜	-13.2003
詞	-13.2003
端	-13.2024
홋	-13.2024
皆	-13.2044
렙	-13.2044
쭘	-13.2044
量	-13.2045
꙼	-13.2064
屬	-13.2065
康	-13.2065
察	-13.2085
習	-13.2085
配	-13.2085
右	-13.2085
乃	-13.2086
밟	-13.2099
僧	-13.2106
讀	-13.2127
陵	-13.2127
附	-13.2147
電	-13.2147
布	-13.2147
鐵	-13.2189
쏭	-13.2231
눠	-13.224
힉	-13.2251
昭	-13.2293
園	-13.2293
損	-13.2336
쩨	-13.2336
喜	-13.2357
툇	-13.2357
갰	-13.2378
雪	-13.2378
弘	-13.242
推	-13.2442
녓	-13.2442
執	-13.2463
婦	-13.2463
讓	-13.2485
섶	-13.2485
랰	-13.2506
삘	-13.2506
除	-13.2527
ü	-13.2528
辰	-13.2549
땨	-13.2549
릎	-13.2566
藤	-13.2571
邊	-13.2571
黑	-13.2571
列	-13.2592
쨔	-13.2614
몄	-13.2614
に	-13.2636
味	-13.2636
夜	-13.2657
켁	-13.2657
澤	-13.2658
聯	-13.2701
쒸	-13.2701
퀄	-13.2723
午	-13.2723
뗐	-13.2745
랔	-13.2745
喪	-13.2767
嚴	-13.2767
留	-13.2767
滅	-13.2789
銀	-13.2789
괌	-13.2789
쐐	-13.2789
펨	-13.2789
施	-13.2811
更	-13.2854
違	-13.2855
寒	-13.2856
惠	-13.2878
い	-13.29
첵	-13.29
樓	-13.2945
る	-13.2967
邪	-13.2968
у	-13.2968
圓	-13.2968
尊	-13.2968
波	-13.3013
겆	-13.3013
탤	-13.3013
沈	-13.3013
뻗	-13.3019
奉	-13.3035
稅	-13.3035
♪	-13.3058
苦	-13.3058
泉	-13.3081
隱	-13.3081
쇤	-13.3081
博	-13.3104
뿡	-13.3104
뺴	-13.3104
柱	-13.3149
態	-13.3172
篇	-13.3172
譯	-13.3172
밬	-13.3172
헴	-13.3172
я	-13.3195
쌰	-13.3195
費	-13.3218
吏	-13.3218
退	-13.3218
橋	-13.3241
筆	-13.3241
뜀	-13.3241
뿅	-13.3241
쑨	-13.3241
🏻	-13.3241
講	-13.3287
辛	-13.3288
뵌	-13.3311
助	-13.3334
型	-13.3334
淵	-13.3334
꽉	-13.3345
亡	-13.3358
備	-13.3358
載	-13.3358
姓	-13.3381
캥	-13.3381
찢	-13.3392
述	-13.3404
協	-13.3404
適	-13.3405
웹	-13.3416
丙	-13.3428
🙏	-13.3428
뒈	-13.3428
革	-13.3451
겝	-13.3452
舍	-13.3452
魯	-13.3475
延	-13.3499
쟎	-13.3499
徒	-13.3499
̣	-13.35
띔	-13.3523
比	-13.3523
已	-13.3523
ᄄ	-13.3546
힛	-13.3546
깤	-13.3546
伊	-13.357
丹	-13.357
캣	-13.3594
챔	-13.3594
貞	-13.3594
뺀	-13.3609
볏	-13.3642
셍	-13.3642
쉘	-13.3642
逆	-13.3642
額	-13.3666
破	-13.3666
假	-13.3666
삯	-13.3666
樹	-13.3691
藥	-13.3691
빻	-13.3715
骨	-13.3739
깠	-13.3739
겪	-13.3755
單	-13.3763
般	-13.3763
앳	-13.3788
劍	-13.3812
楊	-13.3812
臨	-13.3812
곗	-13.3812
좃	-13.3812
沙	-13.3837
阿	-13.3837
恩	-13.3861
借	-13.3886
曹	-13.3886
鳳	-13.3911
燕	-13.3911
買	-13.3911
住	-13.3911
릏	-13.3911
深	-13.3911
注	-13.3935
虎	-13.3935
겊	-13.3935
個	-13.396
젬	-13.396
又	-13.396
왤	-13.3985
梅	-13.3985
籍	-13.3985
눙	-13.3985
흄	-13.3985
演	-13.3985
否	-13.4009
票	-13.401
純	-13.401
쨰	-13.401
歲	-13.401
盡	-13.4011
擔	-13.406
몀	-13.406
몆	-13.406
켯	-13.406
換	-13.4085
й	-13.411
ᄈ	-13.411
겤	-13.411
侯	-13.4136
緣	-13.4136
評	-13.4136
亞	-13.4136
楚	-13.4136
俊	-13.4136
赤	-13.4161
셩	-13.4161
督	-13.4186
긱	-13.4186
먀	-13.4186
牛	-13.4212
均	-13.4212
帶	-13.4263
后	-13.4263
♠	-13.4263
兄	-13.4263
戒	-13.4288
傷	-13.4289
際	-13.4314
完	-13.4339
耳	-13.434
寅	-13.434
껜	-13.4366
츰	-13.4388
敵	-13.4392
姜	-13.4418
胡	-13.4444
脫	-13.4444
삑	-13.4444
遂	-13.447
숄	-13.447
妻	-13.447
融	-13.447
잴	-13.447
舞	-13.4496
技	-13.4522
密	-13.4575
企	-13.4575
肉	-13.4601
윷	-13.4628
紙	-13.4628
뱉	-13.4673
津	-13.4708
👍	-13.4708
防	-13.4734
貨	-13.4735
眼	-13.4735
錫	-13.4735
乘	-13.4735
顯	-13.4735
갬	-13.4762
陸	-13.4789
믐	-13.4789
뼘	-13.4789
튄	-13.4789
救	-13.4816
늉	-13.4837
侍	-13.4843
⇒	-13.4843
韻	-13.4843
湯	-13.487
윳	-13.487
찿	-13.487
弟	-13.4897
鳥	-13.4897
〓	-13.4897
烈	-13.4924
錢	-13.4924
秘	-13.4924
뀜	-13.4924
숑	-13.4924
て	-13.4952
啓	-13.4952
干	-13.4952
궜	-13.4952
봥	-13.5007
➀	-13.5034
г	-13.5034
鍾	-13.5034
🥰	-13.5034
웜	-13.5034
▪	-13.5062
庫	-13.5062
辨	-13.5062
試	-13.5062
띨	-13.5118
牧	-13.5118
飛	-13.5118
퓰	-13.5118
鬼	-13.5146
샅	-13.5146
危	-13.5146
越	-13.5146
ы	-13.5174
隨	-13.5202
▼	-13.5202
普	-13.523
뀐	-13.5256
溫	-13.526
α	-13.5287
託	-13.5287
봬	-13.5287
➌	-13.5315
옭	-13.5315
벚	-13.5343
뷸	-13.5343
슝	-13.5344
젛	-13.5344
튈	-13.5344
創	-13.5372
群	-13.5372
葉	-13.5372
影	-13.5372
莫	-13.54
誌	-13.5401
な	-13.5429
池	-13.5429
귐	-13.5429
닻	-13.5487
싳	-13.5487
햏	-13.5487
浦	-13.5516
뽈	-13.5516
≪	-13.5532
됴	-13.5545
或	-13.5573
童	-13.5574
斗	-13.5574
訓	-13.5574
렝	-13.5574
쾨	-13.5574
묶	-13.559
賊	-13.5603
積	-13.5604
峰	-13.5604
算	-13.5604
듈	-13.5604
婚	-13.5604
し	-13.5633
超	-13.5633
付	-13.5662
奴	-13.5662
獻	-13.5662
꿎	-13.5662
잨	-13.5662
덯	-13.5692
封	-13.5692
旣	-13.5692
긁	-13.571
浮	-13.5721
삥	-13.5721
쿰	-13.5721
廟	-13.575
展	-13.575
롸	-13.5751
룹	-13.5767
솨	-13.5781
坐	-13.5781
낏	-13.5781
🙂	-13.5781
壬	-13.5811
꺠	-13.5811
휭	-13.5811
깥	-13.5838
宇	-13.5841
警	-13.5841
惟	-13.5841
豫	-13.5871
魂	-13.5871
副	-13.5871
賦	-13.5871
率	-13.5901
隊	-13.5901
땟	-13.5901
옼	-13.5901
抗	-13.5901
答	-13.5931
閔	-13.5961
巫	-13.5961
냨	-13.5961
妙	-13.5961
ь	-13.5992
쟨	-13.5992
몃	-13.5992
岩	-13.6022
淨	-13.6022
便	-13.6051
禍	-13.6053
괞	-13.6053
퉜	-13.6053
履	-13.6053
角	-13.6083
逸	-13.6083
僞	-13.6084
펩	-13.6114
꽤	-13.617
庚	-13.6176
負	-13.6176
앖	-13.6176
照	-13.6207
卿	-13.6207
追	-13.6238
뀨	-13.6238
뻣	-13.6238
죤	-13.6238
差	-13.627
桓	-13.627
魔	-13.627
깹	-13.627
눗	-13.627
😍	-13.63
凡	-13.6301
劇	-13.6332
쌕	-13.6332
퉈	-13.6332
盛	-13.6364
둿	-13.6364
딫	-13.6364
固	-13.6396
엡	-13.6396
疏	-13.6396
邦	-13.6427
浩	-13.6427
久	-13.6428
雖	-13.649
晉	-13.6491
免	-13.6491
β	-13.6555
云	-13.6588
熱	-13.6588
쟀	-13.6588
헠	-13.6588
辯	-13.662
授	-13.6652
台	-13.6652
碑	-13.6652
땋	-13.6652
製	-13.6685
퀀	-13.6685
店	-13.6685
ᴗ	-13.6685
槪	-13.6718
聽	-13.6718
샨	-13.6718
캤	-13.6718
標	-13.675
步	-13.675
專	-13.6783
멩	-13.6783
솝	-13.6783
洙	-13.6816
愚	-13.6816
묜	-13.6816
彼	-13.6849
急	-13.6849
鶴	-13.6849
홑	-13.6849
丘	-13.6883
乾	-13.6883
煥	-13.6883
썹	-13.6913
切	-13.6916
퓌	-13.6916
ヲ	-13.6942
敗	-13.6949
윅	-13.6949
納	-13.6949
걀	-13.6981
焉	-13.6982
鑑	-13.6983
貸	-13.6983
쫘	-13.6983
😢	-13.6983
稱	-13.7016
蘭	-13.7017
핰	-13.7017
環	-13.705
텄	-13.705
冠	-13.7084
毛	-13.7084
츈	-13.7084
酉	-13.7084
­	-13.7118
罰	-13.7118
[...]
